'<pad>_'
'<EOS>_'
' , _'
' ._'
'the_'
' &_'
';_'
'apos_'
'to_'
'of_'
'là_'
'and_'
'a_'
'tôi_'
'một_'
'có_'
'và_'
'that_'
'I_'
'quot_'
'in_'
'của_'
'chúng_'
'những_'
'is_'
'you_'
'ta_'
'it_'
'không_'
's_'
'; _'
'we_'
'bạn_'
'đó_'
'người_'
'trong_'
'thể_'
'And_'
'đã_'
'này_'
'các_'
' . _'
'được_'
'this_'
' -- _'
'Và_'
'với_'
'cho_'
'sự_'
'ra_'
'mà_'
'nó_'
'làm_'
'ở_'
'về_'
'để_'
'for_'
'như_'
' ?_'
'sẽ_'
'-_'
'was_'
'thế_'
'are_'
'have_'
'điều_'
'with_'
'on_'
'they_'
'khi_'
'can_'
'nói_'
'họ_'
'Tôi_'
'So_'
'do_'
' : _'
't_'
'what_'
'phải_'
'đến_'
'vào_'
'đang_'
'about_'
' , &_'
'việc_'
'rằng_'
'lại_'
'gì_'
'rất_'
'cách_'
'nhiều_'
'be_'
'thấy_'
'at_'
'not_'
'cả_'
're_'
'all_'
'đầu_'
'as_'
'từ_'
'so_'
' . &_'
'công_'
'thực_'
'nào_'
'học_'
'hơn_'
'It_'
'people_'
'trên_'
'vì_'
'khác_'
'cái_'
'đây_'
'an_'
'like_'
'chỉ_'
'con_'
'biết_'
'there_'
'from_'
'my_'
'năm_'
'one_'
'Chúng_'
'nghĩ_'
'thứ_'
'our_'
'1_'
'muốn_'
'The_'
'But_'
'just_'
'đi_'
'We_'
'quan_'
'thành_'
'very_'
'cũng_'
'bị_'
'but_'
'going_'
'if_'
'nhà_'
'nhất_'
'tạo_'
'Nhưng_'
'up_'
'these_'
'or_'
'mình_'
'who_'
'giới_'
'when_'
'vậy_'
'chính_'
'số_'
'nhưng_'
'me_'
'động_'
'out_'
'nên_'
'he_'
'which_'
'think_'
'because_'
'by_'
'see_'
'nếu_'
'cuộc_'
'know_'
'them_'
'hay_'
'hình_'
'more_'
'hiện_'
'bằng_'
'ông_'
'sống_'
'ý_'
'mọi_'
'get_'
'đề_'
'tự_'
'tất_'
'ấy_'
'giờ_'
'nhìn_'
'really_'
'thì_'
'has_'
'had_'
'tế_'
'lớn_'
'how_'
'cần_'
'us_'
'nhận_'
'your_'
'their_'
'bởi_'
'would_'
'm_'
'bản_'
'tại_'
'sau_'
'còn_'
'theo_'
'bắt_'
'world_'
'were_'
'tới_'
'here_'
'câu_'
'chuyện_'
'This_'
've_'
'time_'
'đổi_'
'cảm_'
'You_'
'anh_'
'trở_'
'thời_'
'qua_'
'sao_'
'ngày_'
'then_'
'năng_'
'nước_'
'lên_'
'cùng_'
'cơ_'
'Now_'
'thay_'
'toàn_'
'dụng_'
'way_'
'nhân_'
'nhau_'
'Nó_'
'actually_'
'thật_'
'phát_'
'Đây_'
'vấn_'
'into_'
'sinh_'
'phần_'
'tin_'
'go_'
'định_'
'mới_'
'nơi_'
'tốt_'
'trước_'
'hỏi_'
'where_'
'other_'
'don_'
'lý_'
'will_'
'kết_'
'trường_'
'gia_'
'bộ_'
'tưởng_'
'years_'
'some_'
'two_'
'thiết_'
'things_'
'tìm_'
'tính_'
'trình_'
'thông_'
'ảnh_'
'now_'
'sử_'
'._'
'been_'
'could_'
'Bạn_'
'máy_'
' ? _'
'hệ_'
'Đó_'
'vật_'
'nữa_'
'nhiên_'
'gian_'
'They_'
'trọng_'
'than_'
'make_'
'want_'
'thức_'
'hàng_'
'ai_'
'hành_'
'tâm_'
'said_'
'hợp_'
'vị_'
'kinh_'
'rồi_'
'much_'
' ? &_'
'mặt_'
'cô_'
'tiên_'
'thích_'
'right_'
'no_'
'lượng_'
'vài_'
'sáng_'
'hoá_'
'hai_'
'giống_'
'those_'
'đều_'
'thường_'
'something_'
'giải_'
'xem_'
'nghệ_'
'tiếp_'
'life_'
'bất_'
'back_'
'say_'
' ; _'
'first_'
'thống_'
'hội_'
'she_'
'Một_'
'liệu_'
'Vì_'
'look_'
',_'
'trẻ_'
'đối_'
'loại_'
'đồng_'
'cầu_'
'also_'
'Có_'
'his_'
'In_'
'nghĩa_'
'điểm_'
'viên_'
'chiếc_'
'Nếu_'
'thing_'
'even_'
'got_'
'bao_'
'gọi_'
'độ_'
'thuật_'
'cao_'
'quá_'
'only_'
'Vậy_'
'đưa_'
'lần_'
'cứu_'
'need_'
'hoặc_'
'hiểu_'
'chuyển_'
'tương_'
'nay_'
'little_'
'her_'
'vẫn_'
'most_'
'lot_'
'many_'
'bệnh_'
'That_'
'nghiệm_'
'new_'
'lúc_'
'kế_'
'take_'
'kind_'
'hoàn_'
'Họ_'
'use_'
'different_'
'What_'
'ơn_'
'xảy_'
'tranh_'
'work_'
'good_'
'quả_'
'nhỏ_'
'. _'
'ăn_'
'bên_'
'bài_'
'10_'
'phụ_'
'giáo_'
'xe_'
'nữ_'
'dùng_'
'around_'
'từng_'
'mỗi_'
'lực_'
'through_'
'down_'
'year_'
'quyết_'
'000_'
'đại_'
'tác_'
'trị_'
'nghe_'
'trung_'
'Điều_'
'Khi_'
'over_'
'Well_'
'lời_'
'lấy_'
'não_'
'chất_'
'3_'
'Những_'
'đường_'
'did_'
'triển_'
'tiền_'
'bình_'
'điện_'
'liên_'
'being_'
'There_'
'phân_'
'diễn_'
'Trong_'
'cố_'
'biệt_'
'tuyệt_'
'khoảng_'
'giá_'
'll_'
'If_'
'phòng_'
'cuối_'
'He_'
'2_'
'đặt_'
'three_'
'sản_'
'come_'
'same_'
'tập_'
'khả_'
'đơn_'
'yêu_'
'nghiên_'
'biến_'
'phẩm_'
'percent_'
'mất_'
'tuổi_'
'tiến_'
'mang_'
'bảo_'
'thú_'
'hết_'
'em_'
'đất_'
'giúp_'
'dụ_'
'chiến_'
'chủ_'
'every_'
'tình_'
'tay_'
'Không_'
'tượng_'
'hiệu_'
'gần_'
'Các_'
'giữa_'
'dân_'
'cá_'
'chơi_'
'âm_'
'well_'
'dự_'
'bỏ_'
'Anh_'
'xuất_'
'trả_'
'tiếng_'
'nhạc_'
'doing_'
'đấy_'
'talk_'
'any_'
'Mỹ_'
'tử_'
'A_'
'đồ_'
'today_'
'luôn_'
'change_'
'thu_'
'quốc_'
'kể_'
'great_'
'chưa_'
'đời_'
'đáng_'
'viết_'
'called_'
'&_'
'suy_'
'day_'
'20_'
'own_'
'lập_'
'chế_'
'đúng_'
'tell_'
'sức_'
'started_'
'cộng_'
'bào_'
'truyền_'
'phương_'
'pháp_'
'khoa_'
'hướng_'
'd_'
'ngay_'
'hoạt_'
'why_'
'mạnh_'
'khí_'
'bức_'
'thân_'
'problem_'
'chí_'
'after_'
'trí_'
'kỳ_'
'khó_'
'tên_'
'sách_'
'cứ_'
'xuống_'
'tài_'
'mạng_'
'cụ_'
'chút_'
' &#_'
'đâu_'
'xã_'
'quyền_'
'nghiệp_'
'idea_'
'dẫn_'
'didn_'
'course_'
'chọn_'
'bé_'
' - _'
'nền_'
'gặp_'
'big_'
'ngoài_'
'vi_'
'trò_'
'hãy_'
'văn_'
'thuyết_'
'let_'
'off_'
'mô_'
'made_'
'human_'
'cấp_'
'vô_'
'put_'
'minh_'
'khu_'
'its_'
'chết_'
'thần_'
'phép_'
'giác_'
'each_'
'dưới_'
'chức_'
'before_'
'nguyên_'
'đạo_'
'ít_'
'rõ_'
'di_'
'tư_'
'tháng_'
'nguồn_'
'mở_'
'kiến_'
'khá_'
'important_'
'giản_'
'dựng_'
'bay_'
' : &_'
'vời_'
'together_'
'question_'
'phá_'
'dạng_'
'Thế_'
'đánh_'
'phim_'
'cây_'
'tinh_'
'may_'
'giả_'
'dịch_'
'bà_'
'ứng_'
'last_'
'fact_'
'cực_'
'give_'
'chắc_'
'án_'
'xây_'
'vòng_'
'might_'
'between_'
'Trung_'
'93_'
'thought_'
'chú_'
'đàn_'
'vụ_'
'vọng_'
'triệu_'
'thị_'
'part_'
'next_'
'khỏi_'
'better_'
'Thank_'
'91_'
'tăng_'
'system_'
'story_'
'show_'
'should_'
'quanh_'
'mức_'
'mẹ_'
'chia_'
'đẹp_'
'đặc_'
'ví_'
'tích_'
'him_'
'chứng_'
'Bây_'
'trang_'
'giữ_'
'duy_'
'another_'
'TED_'
'đứa_'
'too_'
'phố_'
'nhóm_'
'nhanh_'
'màu_'
'find_'
'went_'
'vực_'
'thương_'
'still_'
'lẽ_'
'children_'
'came_'
'How_'
'vũ_'
'trái_'
'tiêu_'
'tham_'
'never_'
'does_'
'ba_'
'women_'
'phía_'
'kiếm_'
'gắng_'
'thêm_'
'loài_'
'four_'
'dù_'
'Quốc_'
'đôi_'
'sĩ_'
'few_'
'doesn_'
'bây_'
'able_'
'Hãy_'
'xác_'
'used_'
'quay_'
'mean_'
'long_'
'example_'
'end_'
'cảnh_'
'bàn_'
'50_'
'Ông_'
'vừa_'
'tổ_'
'thúc_'
'100_'
'đầy_'
'thuộc_'
'lợi_'
'lịch_'
'dài_'
'chẳng_'
' ,_'
'hưởng_'
'càng_'
'ago_'
'My_'
'tục_'
'ty_'
'hạn_'
'done_'
'brain_'
'Because_'
'vùng_'
'thử_'
'thanh_'
'start_'
'power_'
'la_'
'gây_'
'đủ_'
'đoạn_'
'understand_'
'trời_'
'toán_'
'thôi_'
'phục_'
'nhớ_'
'looking_'
'dục_'
'biểu_'
'believe_'
'again_'
'water_'
'tồn_'
'thí_'
'million_'
'lòng_'
'kiểm_'
'country_'
'call_'
'xa_'
'trải_'
'trăm_'
'thư_'
'phản_'
'making_'
'luận_'
'kì_'
'ever_'
'đô_'
'technology_'
'place_'
'lai_'
'khiến_'
'30_'
'working_'
'try_'
'point_'
'money_'
'love_'
'cậu_'
'căn_'
'create_'
'ngữ_'
'live_'
'hôm_'
'help_'
'giảm_'
'giao_'
'dữ_'
'ask_'
'across_'
'vẻ_'
'dễ_'
'New_'
'sâu_'
'second_'
'ngồi_'
'dạy_'
'data_'
'always_'
'When_'
'vui_'
'using_'
'sát_'
'sort_'
'real_'
'pretty_'
'môi_'
'means_'
'lớp_'
'kia_'
'feel_'
'Bởi_'
'trying_'
'sợ_'
'less_'
'best_'
'trông_'
'person_'
'kỹ_'
'diện_'
'chạy_'
'báo_'
'bit_'
'Do_'
'đoán_'
'xung_'
'thậm_'
'sai_'
'rộng_'
'old_'
'found_'
'chân_'
'15_'
'đình_'
'stuff_'
'probably_'
'nối_'
'hand_'
'dollars_'
'5_'
'đứng_'
'phủ_'
'light_'
'kỷ_'
'Internet_'
'4_'
'whole_'
'trụ_'
'sẻ_'
'kids_'
'information_'
'five_'
'chắn_'
'buổi_'
' % _'
'yếu_'
'xúc_'
'thoại_'
'school_'
'says_'
'riêng_'
'nằm_'
'lâu_'
'kiện_'
'high_'
'future_'
'comes_'
'biển_'
'away_'
'wanted_'
'talking_'
'cung_'
'đạt_'
'ánh_'
'tạp_'
'number_'
'home_'
'countries_'
'Người_'
'For_'
'while_'
'vận_'
'phạm_'
'mục_'
'mắt_'
'moment_'
'khủng_'
'food_'
'enough_'
'dành_'
'Tất_'
'These_'
'trưởng_'
'trúc_'
'thinking_'
'suốt_'
'quy_'
'quite_'
'mẫu_'
'lựa_'
'learn_'
'khoẻ_'
'dựa_'
'bước_'
'Why_'
'; &_'
'without_'
'small_'
'quý_'
'gái_'
'One_'
'space_'
'mua_'
'kiểu_'
'khám_'
'everything_'
'cells_'
'become_'
'am_'
'Phi_'
'địa_'
'sư_'
'lệ_'
'left_'
'ideas_'
'hồi_'
'energy_'
'cuốn_'
'care_'
'amp_'
'Vâng_'
'She_'
'Cảm_'
'wrong_'
'vệ_'
'tổng_'
'tỉ_'
'phút_'
'ngôn_'
'hữu_'
'hiểm_'
'happens_'
'getting_'
'cải_'
'coming_'
' !_'
'vượt_'
'tầm_'
'thuốc_'
'ràng_'
'man_'
'luật_'
'khăn_'
'hoà_'
'experience_'
'bố_'
'băng_'
'body_'
'-- _'
'Ở_'
'đọc_'
'ích_'
'ways_'
'vẽ_'
'tuần_'
'trợ_'
'took_'
'social_'
'science_'
'nothing_'
'kích_'
'goes_'
'cấu_'
'cạnh_'
'billion_'
'Sau_'
'tỷ_'
'such_'
'nhiệm_'
'lives_'
'half_'
'cánh_'
'chống_'
'chịu_'
'bóng_'
'almost_'
'Tại_'
'All_'
'40_'
'told_'
'tiết_'
'times_'
'single_'
'reason_'
'problems_'
'nổi_'
'lạc_'
'lãnh_'
'khắp_'
'interesting_'
'group_'
'basically_'
'25_'
'12_'
'Ý_'
'words_'
'tối_'
'sắc_'
'side_'
'play_'
'lo_'
'having_'
'ghi_'
'chứ_'
'build_'
'U_'
'Thực_'
'Giờ_'
'Cô_'
'young_'
'yet_'
'xin_'
'tra_'
'nhập_'
'music_'
'maybe_'
'hard_'
'far_'
'dung_'
'chi_'
'bán_'
'Let_'
'đêm_'
'áp_'
'tệ_'
'thủ_'
'room_'
'niềm_'
'hầu_'
'else_'
'community_'
'Here_'
'đẩy_'
'thái_'
'nhiệt_'
'later_'
'dần_'
'doanh_'
'bad_'
'asked_'
'answer_'
'No_'
'Cái_'
'Africa_'
'xấu_'
'thiện_'
'thiên_'
'sắp_'
'someone_'
'simple_'
'sense_'
'quen_'
'process_'
'planet_'
'piece_'
'phí_'
'niệm_'
'health_'
'happened_'
'control_'
'chữ_'
'chương_'
'building_'
'độc_'
'đau_'
'thập_'
'ngoại_'
'mối_'
'mind_'
'lạ_'
'living_'
'language_'
'hứng_'
'gốc_'
'city_'
'chăm_'
'HIV_'
' / _'
'trai_'
'toà_'
'tim_'
'society_'
'robot_'
'mong_'
'line_'
'khiển_'
'happen_'
'dây_'
'cửa_'
'completely_'
'bác_'
'business_'
'book_'
'Xin_'
'Như_'
'6_'
'Để_'
'won_'
'viện_'
'video_'
'tắc_'
'thất_'
'sở_'
'simply_'
'once_'
'often_'
'nhiêu_'
'mặc_'
'looks_'
'kính_'
'gấp_'
'guy_'
'dầu_'
'chỗ_'
'chiều_'
'Thật_'
'Làm_'
'; &#_'
'y_'
'under_'
'trạng_'
'study_'
'research_'
'places_'
'ngạc_'
'ngôi_'
'lắng_'
'lưu_'
'job_'
'hề_'
'hút_'
'everybody_'
'computer_'
'chụp_'
'chuyên_'
'cancer_'
'Sự_'
'Châu_'
'đa_'
'xét_'
'woman_'
'turn_'
'top_'
'set_'
'nạn_'
'minutes_'
'makes_'
'kẻ_'
'dấu_'
'chung_'
'both_'
'Okay_'
'Nên_'
'đức_'
'đột_'
'đội_'
'ô_'
'worked_'
'sẵn_'
'saying_'
'picture_'
'kéo_'
'khắc_'
'keep_'
'inside_'
'hoạ_'
'government_'
'face_'
'chữa_'
'car_'
'bại_'
'already_'
'age_'
'York_'
'Earth_'
'; ._'
'xử_'
'xanh_'
'until_'
'ung_'
'tức_'
'tội_'
'tố_'
'tái_'
'thiếu_'
'saw_'
'possible_'
'phức_'
'phẫu_'
'nỗi_'
'men_'
'hạnh_'
'giết_'
'game_'
'child_'
'bring_'
'amazing_'
'ẩn_'
'ảo_'
'đông_'
'sóc_'
'six_'
'share_'
'self_'
'open_'
'ngắn_'
'lắm_'
'looked_'
'history_'
'family_'
'days_'
'cười_'
'against_'
'As_'
' ..._'
'works_'
'tấm_'
'trực_'
'though_'
'remember_'
'quản_'
'niên_'
'nghèo_'
'myself_'
'lí_'
'lái_'
'knew_'
'khởi_'
'instead_'
'image_'
'hậu_'
'hours_'
'global_'
'giấy_'
'form_'
'cử_'
'beautiful_'
'anything_'
'S_'
' ! _'
'tôn_'
'true_'
'state_'
'shows_'
'run_'
'nuôi_'
'nhu_'
'nguy_'
'move_'
'lưới_'
'level_'
'learned_'
'kĩ_'
'hộ_'
'hơi_'
'hope_'
'happening_'
'gồm_'
'gắn_'
'case_'
'Tây_'
'India_'
'8_'
'11_'
'whether_'
'themselves_'
'public_'
'phúc_'
'nhờ_'
'ngờ_'
'kinds_'
'khách_'
'hy_'
'gửi_'
'growth_'
'giây_'
'cổ_'
'culture_'
'chuẩn_'
'bạo_'
'United_'
'Google_'
'American_'
' ! &_'
'Độ_'
'tàu_'
'thi_'
'taking_'
'stop_'
'soát_'
'sang_'
'phong_'
'night_'
'model_'
'learning_'
'khai_'
'hạt_'
'giai_'
'exactly_'
'chiếu_'
'cha_'
'born_'
'Chỉ_'
'Ấn_'
'đem_'
'wasn_'
'thắng_'
'thách_'
'quang_'
'powerful_'
'others_'
'news_'
'ký_'
'huge_'
'head_'
'ghế_'
'friends_'
'design_'
'cắt_'
'chỉnh_'
'chuột_'
'century_'
'built_'
'based_'
'air_'
'Then_'
'200_'
'đá_'
'wouldn_'
'word_'
'within_'
'universe_'
'quyển_'
'nội_'
'hấp_'
'huỷ_'
'finally_'
'everyone_'
'environment_'
'danh_'
'cân_'
'created_'
'couple_'
'close_'
'chóng_'
'chim_'
'ca_'
'bốn_'
'bầu_'
'ban_'
'States_'
'David_'
'China_'
'; , _'
'60_'
'ước_'
'đỏ_'
'đóng_'
'đen_'
'tồi_'
'tốc_'
'tù_'
'thẳng_'
'thải_'
'sân_'
'read_'
'quickly_'
'phi_'
'nửa_'
'ngăn_'
'ngân_'
'nam_'
'khối_'
'khái_'
'hồ_'
'heard_'
'film_'
'dừng_'
'decided_'
'chuyến_'
'black_'
'C_'
'Afghanistan_'
'9_'
'7_'
'đói_'
'war_'
'view_'
'tận_'
'tầng_'
'spend_'
'seen_'
'rather_'
'personal_'
'ones_'
'oil_'
'ngược_'
'mắc_'
'mơ_'
'mã_'
'large_'
'kỉ_'
'itself_'
'hoạch_'
'guys_'
'girl_'
'dương_'
'dòng_'
'disease_'
'difference_'
'bày_'
'became_'
'animals_'
'People_'
'Oh_'
'Mọi_'
' ... _'
'đấu_'
'vững_'
'vai_'
'thưởng_'
'terms_'
'sure_'
'species_'
'since_'
'quân_'
'questions_'
'project_'
'phổ_'
'past_'
'ngủ_'
'needed_'
'nature_'
'môn_'
'mê_'
'mother_'
'lẫn_'
'knows_'
'hại_'
'fun_'
'full_'
'free_'
'cities_'
'chị_'
'chấp_'
'bánh_'
'Ví_'
'đảm_'
'đích_'
'vân_'
'tuyến_'
'trách_'
'thơ_'
'takes_'
'stories_'
'somebody_'
'rừng_'
'per_'
'order_'
'nhắc_'
'nhảy_'
'ngành_'
'mật_'
'mạch_'
'isn_'
'hoảng_'
'heart_'
'entire_'
'easy_'
'difficult_'
'climate_'
'châu_'
'cannot_'
'bí_'
'bang_'
'average_'
'Cám_'
'đổ_'
'xếp_'
'wrote_'
'tổn_'
'turned_'
'tiện_'
'thụ_'
'step_'
'sound_'
'sometimes_'
'schools_'
'outside_'
'ourselves_'
'ngàn_'
'network_'
'needs_'
'mấy_'
'mãi_'
'màn_'
'material_'
'longer_'
'leave_'
'lan_'
'hạ_'
'hát_'
'economic_'
'dõi_'
'da_'
'cận_'
'buồn_'
'art_'
'Yes_'
'X_'
'Vào_'
'Or_'
'Kỳ_'
'Hoa_'
'đo_'
'xuyên_'
'virus_'
'tả_'
'systems_'
'paper_'
'name_'
'must_'
'months_'
'lửa_'
'lỗi_'
'lĩnh_'
'loạn_'
'least_'
'hài_'
'hoa_'
'given_'
'gets_'
'front_'
'eight_'
'deal_'
'cư_'
'changing_'
'To_'
'Rồi_'
'On_'
'OK_'
'Nhà_'
'Is_'
'B_'
'đợi_'
'đỡ_'
'đám_'
'yourself_'
'voice_'
'trao_'
'tiểu_'
'thấp_'
'third_'
'rối_'
'relationship_'
'realized_'
'phù_'
'perhaps_'
'ngừng_'
'mềm_'
'món_'
'matter_'
'luyện_'
'lost_'
'liệt_'
'khán_'
'key_'
'dậy_'
'designed_'
'death_'
'couldn_'
'companies_'
'chứa_'
'chấm_'
'cháu_'
'certain_'
'bề_'
'area_'
'anyone_'
'along_'
'access_'
'Với_'
'Thứ_'
'Of_'
'80_'
'18_'
'đỉnh_'
'Được_'
'xu_'
'web_'
'watch_'
'vỏ_'
'tờ_'
'tấn_'
'tường_'
'teachers_'
'structure_'
'siêu_'
'showed_'
'sex_'
'scale_'
'phóng_'
'nghề_'
'nghi_'
'moving_'
'lầm_'
'land_'
'kém_'
'known_'
'knowledge_'
'khuôn_'
'individual_'
'hear_'
'dàng_'
'die_'
'developed_'
'cầm_'
'cost_'
'changed_'
'bữa_'
'amount_'
'Right_'
'Liệu_'
'East_'
'Con_'
'70_'
'300_'
'đào_'
'walk_'
'viễn_'
'trì_'
'tools_'
'thảo_'
'thousands_'
'telling_'
'team_'
'sàng_'
'surface_'
'successful_'
'starting_'
'speak_'
'sitting_'
'rest_'
'rate_'
'nặng_'
'núi_'
'nóng_'
'natural_'
'mùa_'
'lots_'
'hộp_'
'hands_'
'grow_'
'gone_'
'field_'
'feeling_'
'dưỡng_'
'during_'
'cám_'
'coi_'
'chạm_'
'camera_'
'basic_'
'Từ_'
'Nam_'
'Facebook_'
'English_'
'Cho_'
'; -- _'
'14_'
'Đầu_'
'áo_'
'Âu_'
'vốn_'
'tộc_'
'tải_'
'turns_'
'sót_'
'sánh_'
'students_'
'seven_'
'rời_'
'physical_'
'nhiễm_'
'media_'
'materials_'
'imagine_'
'hold_'
'góc_'
'felt_'
'fear_'
'eyes_'
'cập_'
'cơn_'
'cáo_'
'company_'
'chảy_'
'chép_'
'changes_'
'center_'
'cause_'
'bền_'
'animal_'
'Mỗi_'
'John_'
'Iran_'
'Hiện_'
'At_'
'AIDS_'
'ống_'
'đương_'
'vợ_'
'vĩ_'
'tô_'
'trừ_'
'trồng_'
'trùng_'
'thả_'
'thiệu_'
'sơ_'
'sóng_'
'spent_'
'source_'
'seeing_'
'scientists_'
'rút_'
'risk_'
'resources_'
'radio_'
'quảng_'
'peace_'
'page_'
'mẽ_'
'modern_'
'miễn_'
'middle_'
'lắp_'
'low_'
'giọng_'
'fly_'
'figure_'
'fast_'
'education_'
'economy_'
'developing_'
'cấy_'
'cũ_'
'complex_'
'chàng_'
'chiếm_'
'box_'
'alone_'
'World_'
'Rất_'
'London_'
'Hồi_'
'God_'
'Chúa_'
'90_'
'đăng_'
'Đại_'
'white_'
'tròn_'
'revolution_'
'result_'
'program_'
'playing_'
'plant_'
'particular_'
'parents_'
'nắm_'
'nông_'
'non_'
'nhé_'
'nghị_'
'lương_'
'lá_'
'khoá_'
'images_'
'especially_'
'eat_'
'dường_'
'cưới_'
'common_'
'bò_'
'bi_'
'available_'
'areas_'
'Wikipedia_'
'Just_'
'Công_'
'Còn_'
'Câu_'
'ổn_'
'Ồ_'
'ấn_'
'điệu_'
'writing_'
'write_'
'wonderful_'
'túi_'
'tránh_'
'teach_'
'special_'
'realize_'
'positive_'
'phấn_'
'pain_'
'nổ_'
'normal_'
'nghìn_'
'nghiêm_'
'mời_'
'mét_'
'máu_'
'market_'
'map_'
'lộ_'
'lạnh_'
'led_'
'lao_'
'kid_'
'hãi_'
'hundreds_'
'ground_'
'già_'
'girls_'
'ghép_'
'gave_'
'explain_'
'early_'
'dance_'
'cỡ_'
'cãi_'
'chủng_'
'chồng_'
'chậm_'
'bảng_'
'bottom_'
'beyond_'
'behavior_'
'beginning_'
'South_'
'Nhìn_'
'Iraq_'
'Hay_'
'DNA_'
'Cách_'
'Ai_'
' $ _'
'đảo_'
'đùa_'
'đèn_'
'vàng_'
'value_'
'tảng_'
'type_'
'trích_'
'tells_'
'stage_'
'size_'
'similar_'
'short_'
'rơi_'
'running_'
'reality_'
'protein_'
'present_'
'online_'
'mắn_'
'mảnh_'
'mái_'
'millions_'
'message_'
'medical_'
'measure_'
'meaning_'
'lược_'
'loạt_'
'linh_'
'kêu_'
'interested_'
'hào_'
'góp_'
'giving_'
'feet_'
'etc_'
'device_'
'computers_'
'chờ_'
'cell_'
'bè_'
'blog_'
'biên_'
'began_'
'Trên_'
'Ngay_'
'Chính_'
'Chinese_'
'Bà_'
'America_'
'16_'
'đòi_'
'whatever_'
'trữ_'
'thở_'
'taught_'
'stand_'
'seems_'
'red_'
'quên_'
'political_'
'nhắn_'
'morning_'
'meant_'
'lặp_'
'lose_'
'khuẩn_'
'issue_'
'hà_'
'humans_'
'happy_'
'happiness_'
'hang_'
'giỏi_'
'general_'
'gen_'
'eye_'
'ended_'
'either_'
'diệu_'
'died_'
'crisis_'
'creating_'
'brought_'
'blue_'
'bigger_'
'ability_'
'Trái_'
'Some_'
'Năm_'
'Ngày_'
'Mexico_'
'Look_'
'K_'
'Instead_'
'Europe_'
'D_'
'Canada_'
'Can_'
'By_'
'0_'
'ủng_'
'đẳng_'
'điệp_'
'đam_'
'Đúng_'
'Đông_'
'Đã_'
'xoay_'
'wall_'
'walking_'
'vỡ_'
'vú_'
'vaccine_'
'tán_'
'tách_'
'trại_'
'tried_'
'thảm_'
'thác_'
'term_'
'tai_'
'sỹ_'
'sốt_'
'sorts_'
'soon_'
'solve_'
'several_'
'scientific_'
'save_'
'rác_'
'population_'
'plants_'
'pictures_'
'phận_'
'pay_'
'particularly_'
'ong_'
'numbers_'
'nice_'
'nguyện_'
'month_'
'minute_'
'lỗ_'
'lồ_'
'lối_'
'làng_'
'lead_'
'khổng_'
'khoản_'
'innovation_'
'focus_'
'experiment_'
'dream_'
'dark_'
'content_'
'clear_'
'chặn_'
'bơi_'
'absolutely_'
'Việc_'
'Our_'
'Nói_'
'Hoặc_'
'Hai_'
'Em_'
'Charles_'
'400_'
'đáp_'
'đua_'
'worth_'
'worse_'
'wonder_'
'week_'
'vết_'
'uống_'
'uses_'
'upon_'
'understanding_'
'tốn_'
'tín_'
'tàng_'
'trưng_'
'truth_'
'thịt_'
'sun_'
'success_'
'sounds_'
'son_'
'solar_'
'send_'
'quỹ_'
'phỏng_'
'patient_'
'mại_'
'meet_'
'major_'
'lived_'
'lab_'
'kịch_'
'khoan_'
'interest_'
'industry_'
'incredibly_'
'hổ_'
'hôn_'
'hiếm_'
'groups_'
'faster_'
'effect_'
'du_'
'drugs_'
'drive_'
'discovered_'
'democracy_'
'cut_'
'crazy_'
'chặt_'
'chance_'
'challenge_'
'bọn_'
'bật_'
'buy_'
'behind_'
'baby_'
'attention_'
'asking_'
'University_'
'Tuy_'
'Today_'
'Theo_'
'Not_'
'Bộ_'
'Bắc_'
'đựng_'
'đập_'
'điên_'
'óc_'
'versus_'
'tàn_'
'trào_'
'training_'
'tiêm_'
'thai_'
'taken_'
'sạch_'
'subject_'
'stopped_'
'stay_'
'sent_'
'seem_'
'rào_'
'robots_'
'points_'
'phê_'
'phiếu_'
'opposite_'
'ngại_'
'named_'
'mùi_'
'mây_'
'movie_'
'lãng_'
'lành_'
'local_'
'law_'
'kê_'
'killed_'
'kill_'
'house_'
'healthy_'
'gợi_'
'growing_'
'gió_'
'generation_'
'further_'
'fire_'
'extremely_'
'dollar_'
'digital_'
'develop_'
'dead_'
'current_'
'cool_'
'connected_'
'cases_'
'buildings_'
'board_'
'becoming_'
'West_'
'Vấn_'
'Ta_'
'T_'
'TV_'
'Phần_'
'Pháp_'
'Israel_'
'Big_'
'13_'
'Ả_'
'đuổi_'
'điển_'
'ám_'
'yên_'
'vong_'
'urban_'
'tắt_'
'tràn_'
'travel_'
'traditional_'
'thừa_'
'thầy_'
'thuần_'
'thoát_'
'theory_'
'technologies_'
'talked_'
'table_'
'sửa_'
'sợi_'
'sớm_'
'sáu_'
'support_'
'stress_'
'spread_'
'smart_'
'situation_'
'series_'
'seconds_'
'recently_'
'quần_'
'quality_'
'produce_'
'phối_'
'phone_'
'parts_'
'older_'
'office_'
'nhằm_'
'ngã_'
'networks_'
'national_'
'mũi_'
'miếng_'
'military_'
'members_'
'math_'
'machine_'
'lễ_'
'levels_'
'ko_'
'issues_'
'indeed_'
'incredible_'
'including_'
'hỗ_'
'họp_'
'hảo_'
'hùng_'
'hour_'
'hit_'
'haven_'
'green_'
'giấc_'
'force_'
'foot_'
'fine_'
'excited_'
'decisions_'
'decade_'
'conversation_'
'continue_'
'concept_'
'béo_'
'bom_'
'among_'
'action_'
'With_'
'Sẽ_'
'Pakistan_'
'Middle_'
'Maybe_'
'Lúc_'
'James_'
'First_'
'E_'
'California_'
'CO2_'
'75_'
'500_'
'24_'
'2008_'
' — _'
' ;_'
'ạ_'
'đừng_'
'wind_'
'weren_'
'website_'
'trống_'
'totally_'
'tiny_'
'thousand_'
'thank_'
'thang_'
'sông_'
'strong_'
'store_'
'speaking_'
'solution_'
'slide_'
'sleep_'
'shown_'
'sea_'
'pull_'
'poor_'
'plastic_'
'phán_'
'period_'
'pattern_'
'patients_'
'opportunity_'
'obviously_'
'notice_'
'nhựa_'
'nhấn_'
'ngẫu_'
'mờ_'
'móc_'
'missing_'
'mine_'
'magic_'
'lộn_'
'lower_'
'literally_'
'khoảnh_'
'jobs_'
'involved_'
'hước_'
'huyết_'
'humanity_'
'hot_'
'hiển_'
'highly_'
'higher_'
'hi_'
'gọn_'
'grew_'
'forward_'
'forms_'
'follow_'
'female_'
'famous_'
'emotional_'
'definition_'
'deep_'
'cản_'
'căng_'
'costs_'
'conflict_'
'conditions_'
'communities_'
'chuỗi_'
'choices_'
'central_'
'cars_'
'carbon_'
'birth_'
'biology_'
'bacteria_'
'architecture_'
'anymore_'
'allows_'
'allow_'
'add_'
'above_'
'Yeah_'
'Y_'
'Who_'
'Western_'
'North_'
'Nigeria_'
'Most_'
'His_'
'GDP_'
'Derek_'
'Chuyện_'
'After_'
'17_'
'150_'
' -- -- _'
'ấm_'
'ơi_'
'đắt_'
'đậu_'
'xương_'
'xong_'
'wife_'
'weight_'
'watching_'
'wants_'
'village_'
'values_'
'tật_'
'trứng_'
'trộn_'
'trắng_'
'trận_'
'truyện_'
'trust_'
'triết_'
'thận_'
'teaching_'
'teacher_'
'song_'
'societies_'
'skills_'
'screen_'
'rẻ_'
'rich_'
'ready_'
'race_'
'production_'
'potential_'
'post_'
'please_'
'pieces_'
'pick_'
'phiên_'
'path_'
'nâng_'
'nhật_'
'nhũng_'
'nhuận_'
'ngựa_'
'ngọn_'
'mù_'
'models_'
'list_'
'likely_'
'leaders_'
'khứ_'
'khấu_'
'khiếp_'
'internet_'
'identity_'
'hương_'
'hundred_'
'hospital_'
'greater_'
'giàu_'
'genetic_'
'gas_'
'friend_'
'father_'
'familiar_'
'fall_'
'exciting_'
'everywhere_'
'engineering_'
'draw_'
'designer_'
'decision_'
'de_'
'cờ_'
'cỗ_'
'côn_'
'cát_'
'clean_'
'chẩn_'
'bờ_'
'buộc_'
'boy_'
'books_'
'below_'
'bed_'
'beauty_'
'audience_'
'attack_'
'approach_'
'allowed_'
'act_'
'Twitter_'
'Trước_'
'Times_'
'Thời_'
'Thậm_'
'Those_'
'School_'
'Mĩ_'
'Liên_'
'George_'
'Every_'
'Einstein_'
'Dù_'
'Cuối_'
'Chris_'
'Bản_'
'21_'
' -- &_'
'xâm_'
'wish_'
'waste_'
'vuông_'
'visual_'
'vast_'
'tá_'
'tuệ_'
'tuyết_'
'treatment_'
'train_'
'toả_'
'tia_'
'thấu_'
'thăm_'
'thùng_'
'thánh_'
'thoả_'
'săn_'
'suất_'
'sustainable_'
'survive_'
'suddenly_'
'stars_'
'somehow_'
'solutions_'
'ship_'
'sell_'
'sector_'
'sa_'
'rượu_'
'răng_'
'results_'
'response_'
'recognize_'
'quote_'
'private_'
'practice_'
'poverty_'
'played_'
'plan_'
'perspective_'
'perfect_'
'organizations_'
'ocean_'
'nỗ_'
'nút_'
'nine_'
'nhẹ_'
'ngưỡng_'
'ngang_'
'mừng_'
'mạc_'
'moral_'
'miệng_'
'miền_'
'minds_'
'miles_'
'mental_'
'memory_'
'massive_'
'mass_'
'male_'
'lục_'
'legs_'
'kiên_'
'kim_'
'khô_'
'khích_'
'journey_'
'investment_'
'income_'
'improve_'
'impact_'
'hứa_'
'hỗn_'
'huống_'
'giảng_'
'funny_'
'focused_'
'eventually_'
'essentially_'
'environmental_'
'email_'
'electricity_'
'eating_'
'dối_'
'dày_'
'door_'
'dog_'
'direction_'
'development_'
'cục_'
'cặp_'
'creative_'
'consider_'
'cold_'
'chối_'
'chó_'
'choose_'
'challenges_'
'certainly_'
'capacity_'
'biện_'
'bees_'
'battery_'
'babies_'
'actual_'
'Which_'
'Washington_'
'Two_'
'Thái_'
'Thomas_'
'Phải_'
'Nào_'
'Nga_'
'Mặt_'
'Mà_'
'MIT_'
'Howard_'
'Even_'
'Cyrus_'
'Bill_'
'Arab_'
'2000_'
'19_'
'ưu_'
'đếm_'
'đằng_'
'đáy_'
'Đừng_'
'zero_'
'yes_'
'xinh_'
'written_'
'wealth_'
'walked_'
'waiting_'
'vua_'
'vision_'
'v_'
'useful_'
'u_'
'trắc_'
'trees_'
'touch_'
'tissue_'
'thọ_'
'thưa_'
'thù_'
'thao_'
'test_'
'temperature_'
'sụp_'
'studies_'
'strategy_'
'star_'
'standing_'
'spaces_'
'search_'
'rules_'
'road_'
'region_'
'rau_'
'radical_'
'putting_'
'progress_'
'product_'
'position_'
'politics_'
'phó_'
'physics_'
'photograph_'
'onto_'
'objects_'
'nơ_'
'ném_'
'note_'
'nobody_'
'mạo_'
'met_'
'meeting_'
'majority_'
'lừa_'
'lọc_'
'lặn_'
'loved_'
'liquid_'
'li_'
'late_'
'larger_'
'khát_'
'interview_'
'impossible_'
'hắn_'
'holes_'
'hole_'
'heavy_'
'games_'
'freedom_'
'forces_'
'favorite_'
'extraordinary_'
'evolved_'
'effective_'
'dặm_'
'driving_'
'doctors_'
'diseases_'
'directly_'
'dinh_'
'despite_'
'cứng_'
'cường_'
'cultural_'
'cover_'
'choice_'
'check_'
'career_'
'bối_'
'bông_'
'bridge_'
'beings_'
'aware_'
'alive_'
'airplane_'
'Web_'
'Thuỵ_'
'Sao_'
'San_'
'R_'
'Paul_'
'NASA_'
'Like_'
'Koran_'
'Hầu_'
'However_'
'GPS_'
'Don_'
'Dan_'
'Cũng_'
'22_'
'- _'
'đeo_'
'Đức_'
'Đến_'
'Đất_'
'ép_'
'wait_'
'various_'
'types_'
'trần_'
'tri_'
'tree_'
'treat_'
'towards_'
'thẩm_'
'thước_'
'thăng_'
'talks_'
'sổ_'
'surgery_'
'super_'
'su_'
'struggle_'
'strange_'
'steps_'
'starts_'
'specific_'
'somewhere_'
'shape_'
'rủi_'
'round_'
'roughly_'
'rock_'
'resource_'
'relationships_'
'recent_'
'reasons_'
'ran_'
'popular_'
'partner_'
'okay_'
'object_'
'nảy_'
'nàng_'
'notion_'
'nhỉ_'
'near_'
'mưa_'
'movement_'
'mom_'
'matters_'
'lẻ_'
'ly_'
'liền_'
'laws_'
'khổ_'
'khóc_'
'khía_'
'kept_'
'individuals_'
'hồn_'
'hẹn_'
'hè_'
'hoại_'
'hoàng_'
'gương_'
'gives_'
'function_'
'flight_'
'examples_'
'evidence_'
'emissions_'
'election_'
'effects_'
'earlier_'
'dứt_'
'dược_'
'dàn_'
'dying_'
'drug_'
'cỏ_'
'cẩn_'
'cà_'
'cuộn_'
'currently_'
'corruption_'
'consumption_'
'colors_'
'college_'
'citizens_'
'causes_'
'bận_'
'bảy_'
'bạch_'
'breast_'
'blind_'
'belief_'
'aren_'
'afraid_'
'according_'
'Về_'
'Phụ_'
'Paris_'
'N_'
'Mặc_'
'Go_'
'Cơ_'
'Chẳng_'
'Bên_'
'Ba_'
'An_'
'Adam_'
'600_'
'45_'
'250_'
'2007_'
'2003_'
'&#_'
' ; &_'
' ... ... _'
'đống_'
'đoàn_'
'đe_'
'Đối_'
'À_'
'yo_'
'xứng_'
'xảo_'
'xưa_'
'whose_'
'vườn_'
'version_'
'unknown_'
'tụ_'
'tóm_'
'typical_'
'tuyên_'
'trầm_'
'trôi_'
'truy_'
'trained_'
'traffic_'
'trade_'
'track_'
'thổi_'
'thuỷ_'
'thuận_'
'throughout_'
'thoải_'
'therefore_'
'tend_'
'television_'
'target_'
'tan_'
'sữa_'
'súng_'
'swim_'
'survival_'
'studying_'
'strength_'
'street_'
'stick_'
'spot_'
'speed_'
'software_'
'slowly_'
'site_'
'sharing_'
'sat_'
'san_'
'rung_'
'ron_'
'rid_'
'responsibility_'
'remarkable_'
'religion_'
'record_'
'reading_'
'raise_'
'rain_'
'provide_'
'projects_'
'principles_'
'pop_'
'policy_'
'pin_'
'piano_'
'phổi_'
'photo_'
'organization_'
'mộ_'
'mỏ_'
'mò_'
'moved_'
'mothers_'
'molecule_'
'lũ_'
'lãm_'
'lâm_'
'lucky_'
'lesson_'
'laptop_'
'khẩu_'
'kháng_'
'increasing_'
'hồng_'
'hẳn_'
'hằng_'
'hải_'
'hãng_'
'helped_'
'gỗ_'
'guess_'
'gt_'
'goal_'
'fish_'
'fight_'
'facing_'
'extra_'
'exploration_'
'exchange_'
'except_'
'event_'
'emotion_'
'dị_'
'dĩ_'
'detail_'
'degree_'
'define_'
'decades_'
'daughter_'
'cột_'
'cốt_'
'critical_'
'creates_'
'contact_'
'consciousness_'
'complicated_'
'collect_'
'click_'
'chúa_'
'chìm_'
'chán_'
'che_'
'bụng_'
'bắn_'
'bắc_'
'bó_'
'broken_'
'breath_'
'break_'
'blood_'
'begin_'
'becomes_'
'battle_'
'autism_'
'appropriate_'
'anywhere_'
'answers_'
'advantage_'
'Tom_'
'Thay_'
'Sun_'
'Steve_'
'Smith_'
'Nhiều_'
'Hôm_'
'Hàn_'
'Hy_'
'Harvard_'
'Gulf_'
'Day_'
'Cậu_'
'Could_'
'Bình_'
'Asia_'
'Americans_'
'Al_'
'28_'
' . , _'
' % ._'
'ổ_'
'đĩa_'
'Á_'
'worry_'
'worldwide_'
'walls_'
'vải_'
'vươn_'
'unless_'
'ultimately_'
'tỏ_'
'tị_'
'tỉnh_'
'tặng_'
'túc_'
'tóc_'
'tò_'
'tuyển_'
'truly_'
'trial_'
'tremendous_'
'treated_'
'tiềm_'
'thói_'
'thính_'
'thuê_'
'thiểu_'
'terrible_'
'tail_'
'sôi_'
'sweet_'
'supposed_'
'suffering_'
'studio_'
'stuck_'
'spending_'
'skin_'
'significant_'
'shot_'
'shaped_'
'service_'
'seriously_'
'security_'
'seat_'
'saving_'
'ráp_'
'religions_'
'reduce_'
'random_'
'raised_'
'quán_'
'quái_'
'pure_'
'price_'
'precisely_'
'polio_'
'pho_'
'party_'
'otherwise_'
'organisms_'
'nở_'
'nốt_'
'nấu_'
'nuclear_'
'notes_'
'normally_'
'ninh_'
'nhẫn_'
'ngầm_'
'ngài_'
'necessarily_'
'mực_'
'mostly_'
'mission_'
'medicine_'
'marketing_'
'marathon_'
'lỏng_'
'lăn_'
'lông_'
'lính_'
'lão_'
'lt_'
'location_'
'listen_'
'link_'
'lines_'
'limited_'
'largest_'
'kiệm_'
'kiss_'
'intelligence_'
'instance_'
'imagery_'
'hư_'
'hô_'
'huấn_'
'husband_'
'highest_'
'gỡ_'
'greatest_'
'giặt_'
'ghét_'
'genome_'
'generations_'
'galaxy_'
'furniture_'
'forth_'
'forever_'
'following_'
'financial_'
'fighting_'
'feels_'
'fantastic_'
'factor_'
'experiments_'
'expensive_'
'entirely_'
'encourage_'
'economists_'
'doạ_'
'diệt_'
'desire_'
'dense_'
'cấm_'
'cưỡng_'
'cross_'
'credit_'
'core_'
'connect_'
'condition_'
'competition_'
'compare_'
'color_'
'colleagues_'
'coffee_'
'co_'
'closer_'
'class_'
'chừng_'
'chấn_'
'character_'
'chair_'
'boys_'
'bottle_'
'artists_'
'anybody_'
'ancient_'
'activity_'
'acting_'
'Your_'
'Vài_'
'Tốt_'
'Thử_'
'Thông_'
'Sahara_'
'Rwanda_'
'Richard_'
'Quan_'
'Nhật_'
'Mẹ_'
'Lần_'
'Los_'
'La_'
'Hình_'
'Hoả_'
'Good_'
'Each_'
'Dân_'
'Cả_'
'City_'
'Chicago_'
'Bức_'
'Bằng_'
'Are_'
'Angeles_'
'Amazon_'
'; . _'
'99_'
'35_'
'20th_'
'2011_'
'2009_'
'ưa_'
'đớn_'
'đốt_'
'đốc_'
'đắn_'
'đạn_'
'Đôi_'
'voi_'
'violence_'
'vinh_'
'usually_'
'universal_'
'unique_'
'tắm_'
'tĩnh_'
'táo_'
'tuy_'
'tung_'
'tumor_'
'trốn_'
'tone_'
'tiệc_'
'thợ_'
'thuyền_'
'thoảng_'
'thiệt_'
'thinks_'
'text_'
'ten_'
'sàn_'
'surprising_'
'suicide_'
'structures_'
'stem_'
'status_'
'states_'
'slow_'
'signs_'
'shouldn_'
'shopping_'
'shared_'
'shame_'
'sexual_'
'services_'
'separate_'
'sand_'
'sample_'
'rập_'
'rét_'
'rule_'
'ro_'
'rise_'
'require_'
'replace_'
'religious_'
'relate_'
'received_'
'quê_'
'puts_'
'push_'
'programs_'
'profound_'
'press_'
'plans_'
'phú_'
'philosophy_'
'performance_'
'patent_'
'painting_'
'ordinary_'
'nếp_'
'nấm_'
'nét_'
'nhạy_'
'nho_'
'ngập_'
'ngoái_'
'nghỉ_'
'newspaper_'
'nets_'
'names_'
'mươi_'
'moves_'
'motor_'
'molecules_'
'miêu_'
'method_'
'metal_'
'mentioned_'
'measuring_'
'mai_'
'lặng_'
'lường_'
'lây_'
'luỹ_'
'losing_'
'lighting_'
'letters_'
'kèm_'
'khung_'
'khao_'
'jump_'
'joy_'
'invite_'
'invest_'
'international_'
'institutions_'
'inspired_'
'insight_'
'injury_'
'infected_'
'increase_'
'ice_'
'hố_'
'hỏng_'
'hẹp_'
'hoả_'
'hospitals_'
'hiệp_'
'hiếp_'
'helping_'
'heat_'
'hair_'
'gói_'
'gánh_'
'grown_'
'grandmother_'
'giận_'
'giường_'
'gián_'
'giam_'
'genes_'
'foreign_'
'floor_'
'finished_'
'finding_'
'fat_'
'fair_'
'faces_'
'explore_'
'experiences_'
'evolution_'
'engine_'
'effort_'
'economies_'
'dọc_'
'dính_'
'drawn_'
'double_'
'divide_'
'degrees_'
'decide_'
'date_'
'daily_'
'dad_'
'cối_'
'cutting_'
'crime_'
'creativity_'
'context_'
'consequences_'
'connection_'
'complete_'
'compassion_'
'communication_'
'cloud_'
'chằm_'
'chăng_'
'chín_'
'châm_'
'cháy_'
'bộc_'
'bậc_'
'bãi_'
'bá_'
'buying_'
'bus_'
'bunch_'
'bought_'
'ball_'
'arm_'
'appear_'
'Yet_'
'Would_'
'Where_'
'War_'
'Tự_'
'Tình_'
'Trường_'
'Thành_'
'Qua_'
'Oxford_'
'Obama_'
'O_'
'Ngân_'
'Nguyên_'
'Nghệ_'
'Mr_'
'More_'
'Many_'
'Là_'
'Joe_'
'Indian_'
'Hơn_'
'Hollywood_'
'H_'
'Giải_'
'Giáo_'
'G_'
'Frank_'
'Everything_'
'Dương_'
'Does_'
'Chiếc_'
'Center_'
'Cambridge_'
'Bắt_'
'Bất_'
'Bang_'
'Art_'
'Alzheimer_'
'Again_'
'95_'
'27_'
'1990_'
'. , _'
' – _'
'ức_'
'địch_'
'đạp_'
'đáo_'
'đà_'
'Đảng_'
'Điển_'
'Ôi_'
'xạ_'
'xoá_'
'worst_'
'workers_'
'window_'
'weeks_'
'waves_'
'vắc_'
'vả_'
'visit_'
'visible_'
'violent_'
'victims_'
'valuable_'
'unfortunately_'
'understood_'
'tí_'
'tân_'
'twice_'
'turning_'
'trạm_'
'tribes_'
'transportation_'
'town_'
'topic_'
'tool_'
'toilet_'
'thỉnh_'
'thô_'
'tháo_'
'thám_'
'thuẫn_'
'therapy_'
'theater_'
'thanks_'
'tha_'
'task_'
'sáo_'
'summer_'
'sum_'
'sold_'
'silent_'
'showing_'
'shares_'
'severe_'
'serious_'
'sending_'
'seemed_'
'secret_'
'samples_'
'safe_'
'rắn_'
'rắc_'
'root_'
'role_'
'respect_'
'represent_'
'relatively_'
'related_'
'rational_'
'range_'
'quét_'
'quãng_'
'quà_'
'quad_'
'published_'
'products_'
'productive_'
'processes_'
'possibly_'
'possibility_'
'pleasure_'
'players_'
'placed_'
'perfectly_'
'passionate_'
'passion_'
'pass_'
'painful_'
'oxygen_'
'operating_'
'none_'
'nhở_'
'ngốc_'
'ngũ_'
'negative_'
'mệnh_'
'mẩu_'
'mãn_'
'mát_'
'morality_'
'moon_'
'mathematical_'
'machines_'
'lạm_'
'lõi_'
'lôi_'
'lying_'
'listening_'
'lifetime_'
'letter_'
'leo_'
'leads_'
'leading_'
'leadership_'
'landscape_'
'kí_'
'kênh_'
'knowing_'
'khơi_'
'khúc_'
'keeping_'
'invented_'
'interface_'
'interests_'
'interact_'
'inspiration_'
'input_'
'innovative_'
'inner_'
'infrastructure_'
'inequality_'
'iPhone_'
'hở_'
'hydrogen_'
'hoping_'
'holding_'
'hiến_'
'himself_'
'heo_'
'hell_'
'held_'
'hearing_'
'ham_'
'hadn_'
'gối_'
'gấu_'
'gà_'
'grid_'
'gotten_'
'giơ_'
'giành_'
'gene_'
'fusion_'
'fundamental_'
'fully_'
'followed_'
'flow_'
'fixed_'
'final_'
'feedback_'
'feed_'
'fashion_'
'falling_'
'equivalent_'
'equally_'
'enormous_'
'engineers_'
'engaged_'
'engage_'
'emotions_'
'electron_'
'dẻo_'
'dải_'
'dáng_'
'dry_'
'drawing_'
'discovery_'
'devices_'
'describe_'
'depression_'
'dealing_'
'cừu_'
'cống_'
'crowd_'
'copy_'
'controlled_'
'contribute_'
'construction_'
'connections_'
'cong_'
'conference_'
'commercial_'
'comfortable_'
'com_'
'colony_'
'code_'
'clearly_'
'chở_'
'chào_'
'chua_'
'chu_'
'chemistry_'
'charge_'
'causing_'
'cam_'
'calls_'
'bột_'
'bỗng_'
'bốc_'
'brains_'
'bong_'
'bodies_'
'binh_'
'billions_'
'benefit_'
'believed_'
'behaviors_'
'behavioral_'
'beat_'
'balance_'
'atoms_'
'atmosphere_'
'artist_'
'argument_'
'anyway_'
'algorithms_'
'al_'
'affect_'
'added_'
'Watson_'
'Viện_'
'Trời_'
'Trẻ_'
'Tony_'
'Texas_'
'TEDTalks_'
'SMS_'
'Rập_'
'Rio_'
'RG_'
'Qaeda_'
'Project_'
'Prize_'
'President_'
'Peace_'
'Ngài_'
'Michael_'
'Martin_'
'Manhattan_'
'Loại_'
'Life_'
'King_'
'Kevin_'
'Kenya_'
'Imagine_'
'II_'
'Học_'
'Hàng_'
'Gore_'
'Giai_'
'Gia_'
'French_'
'Florida_'
'El_'
'Dự_'
'Dĩ_'
'Boston_'
'Australia_'
'Abraham_'
'ADN_'
'2030_'
'2006_'
'1960_'
'đực_'
'đâm_'
'âu_'
'yellow_'
'worlds_'
'wisdom_'
'win_'
'weird_'
'wearing_'
'wars_'
'vất_'
'vĩnh_'
'vâng_'
'vote_'
'ultimate_'
'tạm_'
'tím_'
'trouble_'
'treo_'
'transmit_'
'tradition_'
'total_'
'topics_'
'tomorrow_'
'tiếc_'
'thờ_'
'thổ_'
'thiệp_'
'testing_'
'temporary_'
'teeth_'
'tam_'
'sắt_'
'supply_'
'sub_'
'stream_'
'stock_'
'standard_'
'square_'
'spoken_'
'split_'
'speech_'
'speakers_'
'speaker_'
'sorry_'
'solved_'
'sky_'
'silence_'
'sign_'
'shoes_'
'shift_'
'shell_'
'shake_'
'rồ_'
'rỉ_'
'rưỡi_'
'return_'
'responsible_'
'researchers_'
'report_'
'relevant_'
'regret_'
'reflect_'
'reaction_'
'react_'
'reach_'
'rat_'
'rapidly_'
'ranh_'
'purpose_'
'protected_'
'property_'
'profit_'
'professionals_'
'previous_'
'pressure_'
'pregnant_'
'practical_'
'police_'
'planets_'
'phốt_'
'phím_'
'phì_'
'phái_'
'physicist_'
'photography_'
'phiền_'
'personality_'
'paying_'
'parent_'
'painted_'
'outcomes_'
'organic_'
'opportunities_'
'offer_'
'obvious_'
'nhịp_'
'nhạt_'
'ngực_'
'ngón_'
'ngu_'
'neighborhood_'
'nearly_'
'nation_'
'mỹ_'
'mạn_'
'mâu_'
'màng_'
'multi_'
'mouth_'
'mountains_'
'moments_'
'meat_'
'manh_'
'managed_'
'malaria_'
'magazine_'
'lờ_'
'lệnh_'
'lơ_'
'làn_'
'luồng_'
'liều_'
'limits_'
'lights_'
'lay_'
'latest_'
'lang_'
'ladies_'
'labor_'
'khuyết_'
'keeps_'
'join_'
'invited_'
'invention_'
'introduced_'
'intimacy_'
'insects_'
'influence_'
'immediately_'
'hàm_'
'huy_'
'humor_'
'however_'
'homes_'
'hoang_'
'height_'
'hearts_'
'happier_'
'gũi_'
'gram_'
'grab_'
'giọt_'
'giãn_'
'giám_'
'giày_'
'gift_'
'garden_'
'gap_'
'gain_'
'fundraising_'
'frame_'
'fourth_'
'forget_'
'flying_'
'films_'
'fewer_'
'families_'
'failure_'
'facts_'
'extension_'
'explanation_'
'expected_'
'expectations_'
'expect_'
'existing_'
'exercise_'
'events_'
'essential_'
'escape_'
'errors_'
'elderly_'
'efficient_'
'effectively_'
'edge_'
'economist_'
'dò_'
'dán_'
'dám_'
'drum_'
'driven_'
'dreams_'
'distribution_'
'director_'
'dinner_'
'dimensions_'
'details_'
'described_'
'depth_'
'deeply_'
'dangerous_'
'cụt_'
'cụm_'
'cởi_'
'cốc_'
'creatures_'
'constantly_'
'conflicts_'
'conclusion_'
'concerned_'
'complexity_'
'compared_'
'colonies_'
'cognitive_'
'clock_'
'classroom_'
'classic_'
'civil_'
'chục_'
'chợt_'
'chìa_'
'chemical_'
'cheap_'
'carry_'
'capital_'
'campaign_'
'calling_'
'bụi_'
'bới_'
'bạc_'
'businesses_'
'brothers_'
'brings_'
'bright_'
'breathe_'
'biological_'
'biggest_'
'benefits_'
'bedroom_'
'bear_'
'background_'
'arms_'
'apply_'
'agriculture_'
'aging_'
'afford_'
'adults_'
'address_'
'activities_'
'actions_'
'achieve_'
'accurate_'
'accident_'
'Yves_'
'White_'
'Tổ_'
'Tuyệt_'
'Tin_'
'Thổ_'
'Thánh_'
'Take_'
'Street_'
'Spanish_'
'Sometimes_'
'See_'
'Scott_'
'SW_'
'Robot_'
'Q_'
'Oregon_'
'Obviously_'
'Nobody_'
'Nobel_'
'Nhĩ_'
'Nhân_'
'Nha_'
'National_'
'Máy_'
'Mars_'
'Man_'
'M_'
'Lạp_'
'Luật_'
'Last_'
'L_'
'Khoảng_'
'Islamic_'
'Iranian_'
'Hội_'
'Hey_'
'Gần_'
'Francisco_'
'February_'
'Detroit_'
'Cuộc_'
'Congress_'
'Congo_'
'Coca_'
'Bảo_'
'British_'
'Ben_'
'Ban_'
'BJ_'
'Another_'
'African_'
'Actually_'
'3D_'
'33_'
'21st_'
'2010_'
'2004_'
'19th_'
'1980_'
'ốc_'
'đới_'
'đố_'
'đạc_'
'đón_'
'đàm_'
'đài_'
'điêu_'
'Đơn_'
'ôtô_'
'ác_'
'yeah_'
'xôi_'
'xíu_'
'xài_'
'wooden_'
'wise_'
'wealthy_'
'vở_'
'vỗ_'
'vòi_'
'vulnerable_'
'vang_'
'users_'
'user_'
'underwater_'
'ubiquitous_'
'tựa_'
'tuân_'
'trừu_'
'trấn_'
'trượt_'
'trân_'
'trà_'
'tries_'
'tricks_'
'tragic_'
'tracking_'
'tour_'
'tonight_'
'tip_'
'thẳm_'
'thơm_'
'tháp_'
'thoái_'
'thoughts_'
'technological_'
'tape_'
'sứ_'
'sạn_'
'stupid_'
'studied_'
'straight_'
'statistics_'
'stations_'
'station_'
'spots_'
'spirit_'
'sources_'
'soul_'
'smoke_'
'smaller_'
'slightly_'
'sit_'
'sister_'
'silicon_'
'signature_'
'sides_'
'scientist_'
'scan_'
'savings_'
'rửa_'
'rễ_'
'rèn_'
'route_'
'roll_'
'ring_'
'reverse_'
'relations_'
'regard_'
'reference_'
'reaching_'
'quí_'
'quát_'
'quick_'
'pushed_'
'prove_'
'proteins_'
'procedure_'
'prison_'
'primarily_'
'preserve_'
'pre_'
'powered_'
'pounds_'
'pockets_'
'player_'
'platform_'
'pitch_'
'picked_'
'pha_'
'performing_'
'particles_'
'park_'
'parenting_'
'paint_'
'pack_'
'oyster_'
'overall_'
'outcome_'
'ought_'
'organs_'
'orchestra_'
'openness_'
'opened_'
'obsessed_'
'o_'
'nắng_'
'nêu_'
'nén_'
'novel_'
'noticed_'
'nonprofit_'
'noise_'
'nhủ_'
'nhãn_'
'ngớ_'
'ngắm_'
'ngẩn_'
'neural_'
'net_'
'nervous_'
'narrow_'
'mến_'
'mũ_'
'mãnh_'
'mouse_'
'motivation_'
'medium_'
'master_'
'married_'
'markets_'
'ma_'
'lắc_'
'lật_'
'lũng_'
'lát_'
'logo_'
'logic_'
'lets_'
'laser_'
'languages_'
'kịp_'
'kẹo_'
'kín_'
'kìa_'
'killing_'
'khớp_'
'khẳng_'
'khảo_'
'khuyên_'
'khuynh_'
'khiếm_'
'justice_'
'judge_'
'invisible_'
'industrial_'
'increased_'
'imagination_'
'im_'
'hầm_'
'hạng_'
'hông_'
'hò_'
'huýt_'
'honest_'
'hero_'
'heating_'
'hate_'
'hall_'
'gõ_'
'gã_'
'golf_'
'globalization_'
'giật_'
'giant_'
'garage_'
'gan_'
'flu_'
'flat_'
'flash_'
'fill_'
'fastest_'
'farm_'
'factory_'
'facial_'
'fabric_'
'extreme_'
'extract_'
'explains_'
'explained_'
'experts_'
'experienced_'
'exists_'
'exist_'
'equipment_'
'equal_'
'environments_'
'entered_'
'engagement_'
'ends_'
'employees_'
'emerging_'
'emergence_'
'elements_'
'electric_'
'east_'
'earth_'
'dở_'
'dốc_'
'dâm_'
'drinking_'
'drill_'
'document_'
'doctor_'
'disorder_'
'discussion_'
'discover_'
'differently_'
'diet_'
'designing_'
'density_'
'count_'
'conventional_'
'constant_'
'communicate_'
'committed_'
'coast_'
'clouds_'
'closely_'
'closed_'
'clever_'
'chốt_'
'chọc_'
'chước_'
'chăn_'
'chúc_'
'cheating_'
'chai_'
'cameras_'
'bội_'
'bếp_'
'bắp_'
'bấm_'
'bùng_'
'buôn_'
'button_'
'bringing_'
'brilliant_'
'briefly_'
'borders_'
'blocks_'
'bike_'
'bee_'
'base_'
'balloon_'
'assemble_'
'asks_'
'arts_'
'application_'
'appeared_'
'apartment_'
'animation_'
'anger_'
'allowing_'
'alcohol_'
'ahead_'
'agreed_'
'admit_'
'achieved_'
'accepted_'
'While_'
'Tầm_'
'Turkey_'
'Try_'
'Tasmanian_'
'Taliban_'
'Stanford_'
'St_'
'Sinh_'
'Should_'
'Saharan_'
'Russia_'
'Robert_'
'Revolution_'
'Quá_'
'Palestine_'
'P_'
'Once_'
'Nơi_'
'Này_'
'Nghe_'
'Muslim_'
'Museum_'
'Montana_'
'Mister_'
'Mark_'
'Mandela_'
'Lý_'
'Lewis_'
'Lego_'
'Lebanon_'
'Latin_'
'Kết_'
'Kinh_'
'Khán_'
'July_'
'Jones_'
'Islam_'
'Iceland_'
'Hệ_'
'Hoá_'
'Hi_'
'Her_'
'Hans_'
'Greenland_'
'Giọng_'
'Get_'
'Franklin_'
'Everyone_'
'European_'
'Dr_'
'Cộng_'
'Country_'
'Copenhagen_'
'Come_'
'Cola_'
'Chị_'
'Chắc_'
'Christmas_'
'Bush_'
'Bosnia_'
'Bank_'
'Arabic_'
'Apple_'
'Also_'
'; ?_'
'404_'
'26_'
'23_'
'2005_'
'2001_'
'120_'
' .._'
'ốm_'
'ấu_'
'ư_'
'Ước_'
'độn_'
'đỗ_'
'đè_'
'đuôi_'
'đoan_'
'đai_'
'Điểm_'
'ăng_'
'êm_'
'à_'
'Úc_'
'younger_'
'yards_'
'xích_'
'wondered_'
'winter_'
'wins_'
'willing_'
'wild_'
'wide_'
'whistle_'
'whereas_'
'wheel_'
'weapons_'
'wave_'
'vạch_'
'vé_'
'visually_'
'viruses_'
'virtual_'
'vehicles_'
'vehicle_'
'variety_'
'useless_'
'university_'
'unit_'
'uncertainty_'
'tớ_'
'tẩy_'
'tươi_'
'tông_'
'tây_'
'tám_'
'typing_'
'tuỳ_'
'trỏ_'
'trật_'
'trăng_'
'trèo_'
'trucks_'
'trip_'
'trend_'
'trash_'
'transplant_'
'translate_'
'transition_'
'tough_'
'tomato_'
'toa_'
'tiệm_'
'till_'
'thốt_'
'thấm_'
'thép_'
'thuế_'
'thung_'
'theme_'
'technical_'
'tax_'
'sửng_'
'sắm_'
'swimming_'
'surfaces_'
'suppose_'
'sugar_'
'subjects_'
'style_'
'stronger_'
'sticks_'
'staff_'
'spectrum_'
'southern_'
'solving_'
'soldiers_'
'soft_'
'snow_'
'skill_'
'situations_'
'singing_'
'signal_'
'ships_'
'sets_'
'sentence_'
'selection_'
'seeking_'
'scene_'
'saved_'
'safety_'
'sad_'
'rural_'
'romance_'
'river_'
'rights_'
'ridiculous_'
'reward_'
'review_'
'retirement_'
'respond_'
'researcher_'
'requires_'
'remains_'
'regrets_'
'regime_'
'reduction_'
'raw_'
'rates_'
'qui_'
'quarter_'
'psychological_'
'principle_'
'presented_'
'presence_'
'posted_'
'poorest_'
'pollution_'
'pollen_'
'poetry_'
'poet_'
'phun_'
'photographs_'
'phosphorus_'
'phones_'
'pest_'
'pen_'
'partners_'
'participants_'
'paradox_'
'pages_'
'pace_'
'output_'
'original_'
'organ_'
'orbit_'
'operate_'
'opening_'
'objective_'
'nợ_'
'nọ_'
'nản_'
'nô_'
'nát_'
'nurses_'
'north_'
'nonviolent_'
'nhặt_'
'nhầm_'
'nhường_'
'nhiếp_'
'ngọt_'
'ngạo_'
'ngon_'
'ngoan_'
'nghẽn_'
'neuron_'
'neighbors_'
'naturally_'
'mỡ_'
'mồi_'
'mỏng_'
'mập_'
'múa_'
'muối_'
'museums_'
'multiple_'
'mortality_'
'mobile_'
'mistake_'
'miserable_'
'mirror_'
'micro_'
'metals_'
'mere_'
'mechanisms_'
'matrix_'
'marriage_'
'manufacturing_'
'management_'
'main_'
'magnetic_'
'lợn_'
'lỡ_'
'lướt_'
'lưng_'
'lùi_'
'léo_'
'lánh_'
'loving_'
'loss_'
'literacy_'
'lions_'
'lift_'
'lie_'
'legal_'
'leg_'
'leaving_'
'leader_'
'largely_'
'km_'
'khống_'
'khôn_'
'khôi_'
'khéo_'
'khuyến_'
'kho_'
'khan_'
'keyboard_'
'jihad_'
'jazz_'
'invested_'
'internal_'
'institution_'
'influenced_'
'independent_'
'improvement_'
'importantly_'
'importance_'
'imperative_'
'immune_'
'immediate_'
'identify_'
'hối_'
'hươu_'
'hôi_'
'hái_'
'huynh_'
'hung_'
'hoãn_'
'horrible_'
'ho_'
'hire_'
'hip_'
'hidden_'
'heroes_'
'handed_'
'hamburger_'
'hacker_'
'gác_'
'graph_'
'granted_'
'grade_'
'glass_'
'gentlemen_'
'galaxies_'
'funded_'
'fuel_'
'frogs_'
'frankly_'
'former_'
'formed_'
'formal_'
'forests_'
'forest_'
'fold_'
'float_'
'fix_'
'fits_'
'firing_'
'fell_'
'fathers_'
'fan_'
'fail_'
'faced_'
'expressions_'
'expression_'
'exposed_'
'exploring_'
'explaining_'
'evolutionary_'
'evil_'
'estimates_'
'established_'
'epidemic_'
'engines_'
'engineer_'
'enemy_'
'eggs_'
'educated_'
'economics_'
'easier_'
'dỗ_'
'dồn_'
'dịu_'
'dắt_'
'dập_'
'dư_'
'dãy_'
'dã_'
'dropped_'
'drone_'
'drink_'
'dramatic_'
'dozens_'
'doubt_'
'dogs_'
'divided_'
'distance_'
'dish_'
'disaster_'
'dinosaurs_'
'dimensional_'
'differences_'
'devil_'
'determined_'
'desk_'
'description_'
'depressed_'
'department_'
'denial_'
'deliver_'
'deaf_'
'dao_'
'damage_'
'dai_'
'cắp_'
'cạn_'
'cú_'
'cáp_'
'cylinder_'
'creature_'
'covered_'
'cortisol_'
'corner_'
'cooling_'
'controversial_'
'contributed_'
'continued_'
'consumer_'
'considered_'
'concrete_'
'compute_'
'commitment_'
'combine_'
'collective_'
'clothes_'
'closest_'
'climb_'
'chẽ_'
'chả_'
'chóc_'
'chày_'
'chosen_'
'chip_'
'childhood_'
'characteristics_'
'catch_'
'card_'
'capita_'
'capable_'
'candidate_'
'bổ_'
'bẩy_'
'bẩm_'
'bón_'
'busy_'
'burning_'
'bulb_'
'budget_'
'bubble_'
'brother_'
'bomb_'
'block_'
'biếm_'
'birds_'
'bia_'
'beliefs_'
'behave_'
'begins_'
'batteries_'
'bar_'
'banjo_'
'bags_'
'awful_'
'attacks_'
'astonishing_'
'associated_'
'arrived_'
'applications_'
'apart_'
'anxiety_'
'anti_'
'annual_'
'announced_'
'alternative_'
'aircraft_'
'agree_'
'agency_'
'accept_'
'abalone_'
'Zealand_'
'Youtube_'
'YouTube_'
'Yorker_'
'Yale_'
'Xô_'
'Women_'
'Wolfram_'
'Whether_'
'Wall_'
'Vật_'
'Văn_'
'Voice_'
'Very_'
'Unfortunately_'
'Tính_'
'Tìm_'
'Tác_'
'Tiếng_'
'Time_'
'Thiết_'
'Think_'
'Thanks_'
'Teszler_'
'Tesla_'
'Sĩ_'
'Sáu_'
'Sweden_'
'Stirling_'
'State_'
'Stage_'
'Sir_'
'Saudi_'
'SOPA_'
'Rosling_'
'Research_'
'Really_'
'Ray_'
'Quân_'
'Quay_'
'Phòng_'
'Phoenix_'
'Park_'
'Pants_'
'PIPA_'
'Ok_'
'Nỗi_'
'Nước_'
'Nghiên_'
'Nelson_'
'Neil_'
'Nathan_'
'Muslims_'
'Muhammad_'
'Movember_'
'Moore_'
'Miller_'
'Liberia_'
'Leonardo_'
'Langley_'
'Kim_'
'Khoa_'
'Journal_'
'Jonas_'
'Jim_'
'Jay_'
'Islands_'
'Island_'
'IBM_'
'Hắn_'
'Hải_'
'Hiệp_'
'High_'
'Have_'
'Green_'
'Goliath_'
'From_'
'Four_'
'Egypt_'
'Eastern_'
'Did_'
'Darwin_'
'Daniel_'
'DVD_'
'Cực_'
'Cùng_'
'Clinton_'
'Chà_'
'Christian_'
'Children_'
'CAD_'
'Bố_'
'Bài_'
'Brown_'
'Brazil_'
'Be_'
'Bao_'
'Arthur_'
'Andrew_'
'Amy_'
'Am_'
'Afghan_'
'About_'
'; - _'
'800_'
'65_'
'41_'
'29_'
'2015_'
'1970s_'
'140_'
'. &_'
'--_'
' ... &_'
' . &#_'
'ủi_'
'ồn_'
'ếch_'
'đồi_'
'đậm_'
'đôla_'
'đuối_'
'đun_'
'điền_'
'đinh_'
'Địa_'
'Đa_'
'ân_'
'ái_'
'zone_'
'xách_'
'xuân_'
'xi_'
'worried_'
'wired_'
'whenever_'
'wake_'
'vụn_'
'vọt_'
'vịt_'
'vịnh_'
'vẹn_'
'ván_'
'vách_'
'volume_'
'virtually_'
'viewer_'
'videos_'
'verbal_'
'vegetables_'
'vay_'
'uốn_'
'unusual_'
'unlikely_'
'universes_'
'underlying_'
'ugly_'
'tủ_'
'tịch_'
'tê_'
'tuỷ_'
'tuý_'
'tune_'
'tumors_'
'trộm_'
'trú_'
'troops_'
'trinh_'
'trials_'
'trends_'
'traveled_'
'transfer_'
'trait_'
'tiễn_'
'tips_'
'tie_'
'tide_'
'tickets_'
'thạch_'
'thôn_'
'throw_'
'thrive_'
'threat_'
'thin_'
'tested_'
'teaches_'
'tap_'
'tall_'
'talent_'
'sốc_'
'sập_'
'sưu_'
'sùng_'
'symptom_'
'survivors_'
'surprisingly_'
'surely_'
'sung_'
'suggests_'
'sufficient_'
'suffer_'
'sudden_'
'streets_'
'strategies_'
'strangers_'
'stops_'
'stood_'
'stigma_'
'steel_'
'spreading_'
'spelled_'
'specifically_'
'south_'
'sophisticated_'
'solid_'
'soil_'
'smoking_'
'smells_'
'smell_'
'slides_'
'skilled_'
'sisters_'
'simplest_'
'signals_'
'sight_'
'shut_'
'shocked_'
'shit_'
'shirt_'
'shine_'
'sheet_'
'shapes_'
'setting_'
'sensors_'
'sensitive_'
'senior_'
'selling_'
'seek_'
'secure_'
'searching_'
'searches_'
'scratch_'
'scores_'
'scared_'
'satisfaction_'
'sake_'
'rộn_'
'rỗi_'
'rẽ_'
'rạp_'
'rò_'
'rãi_'
'râu_'
'routine_'
'rocket_'
'ride_'
'ria_'
'restaurants_'
'restaurant_'
'representing_'
'replicate_'
'repeat_'
'repair_'
'reminds_'
'release_'
'relative_'
'receive_'
'ray_'
'rapid_'
'randomly_'
'quyến_'
'quyên_'
'quit_'
'pump_'
'pulling_'
'pulled_'
'psychologists_'
'psychologist_'
'proud_'
'prototype_'
'protect_'
'prostate_'
'proposed_'
'promise_'
'professional_'
'productivity_'
'produced_'
'processing_'
'privileged_'
'primate_'
'previously_'
'president_'
'predict_'
'precise_'
'precious_'
'pray_'
'pound_'
'poster_'
'politicians_'
'poem_'
'plus_'
'playwright_'
'plastics_'
'planning_'
'plain_'
'phồng_'
'phẳng_'
'phạt_'
'phôi_'
'phrase_'
'phiêu_'
'phenomenon_'
'phase_'
'personalized_'
'performed_'
'perform_'
'peer_'
'peak_'
'peaceful_'
'patents_'
'passes_'
'passenger_'
'passed_'
'paid_'
'oxytocin_'
'oxy_'
'ownership_'
'option_'
'opinion_'
'opera_'
'onstage_'
'oh_'
'offers_'
'occurred_'
'nấc_'
'nướng_'
'nín_'
'nuts_'
'nowadays_'
'nose_'
'nonsense_'
'nhắm_'
'nham_'
'ngừa_'
'ngủi_'
'nghịch_'
'nghiện_'
'necessary_'
'narrative_'
'nano_'
'mồ_'
'mọc_'
'mì_'
'mèo_'
'muộn_'
'muỗi_'
'muôn_'
'mustache_'
'museum_'
'muscle_'
'mountain_'
'monsters_'
'missed_'
'miss_'
'minus_'
'millimeter_'
'mid_'
'meters_'
'metaphor_'
'mention_'
'memories_'
'mechanism_'
'mechanics_'
'measured_'
'meals_'
'meal_'
'marker_'
'mapping_'
'males_'
'makers_'
'magical_'
'lệch_'
'lều_'
'lận_'
'lung_'
'lunch_'
'lovely_'
'loses_'
'lit_'
'liked_'
'license_'
'library_'
'letting_'
'len_'
'leaf_'
'laughed_'
'lake_'
'lady_'
'lack_'
'kẽ_'
'kiệt_'
'khùng_'
'khâu_'
'khoăn_'
'khoái_'
'khoe_'
'khiêm_'
'khe_'
'kem_'
'joined_'
'islands_'
'intervene_'
'interactive_'
'interactions_'
'interaction_'
'intellectual_'
'integrated_'
'insurance_'
'instantly_'
'innocent_'
'injured_'
'independence_'
'include_'
'improving_'
'implications_'
'impacts_'
'imaging_'
'illusion_'
'illness_'
'ignore_'
'ideal_'
'iPad_'
'hổng_'
'hận_'
'hạch_'
'hưu_'
'hòn_'
'hít_'
'hàu_'
'huyền_'
'hut_'
'hormone_'
'hiếu_'
'helps_'
'helpful_'
'healthcare_'
'heads_'
'hat_'
'hasn_'
'hackers_'
'gớm_'
'gập_'
'gạch_'
'guilty_'
'grandfather_'
'goods_'
'goat_'
'globe_'
'giấu_'
'giang_'
'ghê_'
'genetics_'
'generated_'
'gai_'
'fundamentally_'
'fuels_'
'fresh_'
'foundation_'
'flowers_'
'flies_'
'finish_'
'fingers_'
'filled_'
'figuring_'
'fiery_'
'fiction_'
'fetus_'
'fellow_'
'favor_'
'farmers_'
'failing_'
'fabulous_'
'extended_'
'expose_'
'expert_'
'existence_'
'existed_'
'exact_'
'evening_'
'estate_'
'essence_'
'error_'
'era_'
'ensure_'
'encyclopedia_'
'encounter_'
'empathy_'
'emergency_'
'emerge_'
'elite_'
'elephant_'
'electrical_'
'efficiency_'
'earthquake_'
'ear_'
'dê_'
'dynamic_'
'drove_'
'drops_'
'driver_'
'download_'
'dots_'
'diversity_'
'diver_'
'distributed_'
'distinct_'
'distant_'
'display_'
'discipline_'
'direct_'
'detect_'
'destroyed_'
'depends_'
'depending_'
'depend_'
'defined_'
'defense_'
'cổng_'
'cắm_'
'cất_'
'cướp_'
'cương_'
'cài_'
'cycle_'
'curriculum_'
'cua_'
'corresponds_'
'correct_'
'coral_'
'continuing_'
'continent_'
'contains_'
'conservative_'
'conservation_'
'confronted_'
'confidence_'
'condoms_'
'conclude_'
'concerns_'
'concepts_'
'computing_'
'comic_'
'collected_'
'collapse_'
'coal_'
'civilization_'
'chướng_'
'chuông_'
'church_'
'chocolate_'
'chk_'
'chat_'
'chart_'
'chain_'
'cents_'
'celebrate_'
'caught_'
'cartoon_'
'careful_'
'capture_'
'candle_'
'cai_'
'bớt_'
'bọ_'
'bẩn_'
'bạt_'
'bơm_'
'băn_'
'bút_'
'bóc_'
'bão_'
'bách_'
'buýt_'
'brown_'
'broke_'
'breaking_'
'brand_'
'bow_'
'bon_'
'blow_'
'bits_'
'biologists_'
'bin_'
'believes_'
'beating_'
'bars_'
'bank_'
'bacterium_'
'backwards_'
'axis_'
'autonomy_'
'author_'
'attracted_'
'attract_'
'attempt_'
'ate_'
'astronomy_'
'assume_'
'artificial_'
'argue_'
'architectural_'
'applied_'
'appears_'
'app_'
'ants_'
'antibody_'
'analysis_'
'aluminum_'
'although_'
'ages_'
'affected_'
'advice_'
'advanced_'
'addressing_'
'adapt_'
'accessible_'
'abstract_'
'absorb_'
'YR_'
'Xem_'
'Wright_'
'Wow_'
'William_'
'Will_'
'Whereas_'
'Whatever_'
'Weiffenbach_'
'Warren_'
'Valley_'
'V_'
'USA_'
'Tổng_'
'Tưởng_'
'Tương_'
'Toà_'
'Titanic_'
'Tinh_'
'Thôi_'
'Thêm_'
'Three_'
'Thiên_'
'Taylor_'
'Tarahumara_'
'Syria_'
'Stone_'
'Stephen_'
'Splashy_'
'Southern_'
'Singapore_'
'Since_'
'Simon_'
'Shanghai_'
'September_'
'Second_'
'Seattle_'
'Romo_'
'Rick_'
'Quỹ_'
'Qatar_'
'Professor_'
'Portland_'
'Plato_'
'Phương_'
'Peter_'
'Perhaps_'
'Over_'
'Oakland_'
'OECD_'
'None_'
'Nick_'
'Nhờ_'
'Nhạc_'
'Ngôi_'
'Newton_'
'Nature_'
'Nations_'
'Mình_'
'Mozart_'
'Mexican_'
'Matt_'
'Mario_'
'Mall_'
'Malcolm_'
'MW_'
'MRI_'
'Luther_'
'Lord_'
'Long_'
'Lock_'
'Lincoln_'
'Len_'
'Lawrence_'
'Lan_'
'Kể_'
'Kyoto_'
'Kiribati_'
'Khiến_'
'Ken_'
'Kelly_'
'Johnny_'
'Joel_'
'Jerusalem_'
'Japan_'
'J_'
'JR_'
'JH_'
'Italy_'
'International_'
'Hợp_'
'House_'
'Hong_'
'Health_'
'Hawaii_'
'Hall_'
'Haiti_'
'Greek_'
'Great_'
'Global_'
'Giống_'
'Ghana_'
'German_'
'Fox_'
'Finally_'
'Exxon_'
'Everybody_'
'Eve_'
'Eric_'
'Di_'
'Dad_'
'Cứu_'
'Cập_'
'Cuba_'
'Columbia_'
'Coke_'
'Coast_'
'Chưa_'
'Chú_'
'Cháu_'
'Chào_'
'Cha_'
'Central_'
'Carolina_'
'Cameron_'
'CNN_'
'CEO_'
'CAPTCHA_'
'Bảy_'
'Bác_'
'Bronx_'
'Brian_'
'Berkeley_'
'Benjamin_'
'Before_'
'Baxter_'
'Bangalore_'
'Azerbaijan_'
'Arizona_'
'Arabs_'
'Antarctica_'
'Alfred_'
'Ah_'
'AO_'
'AK_'
'; , &_'
'84_'
'750_'
'700_'
'31_'
'2002_'
'1992_'
'1969_'
'1900_'
'180_'
'125_'
'1000_'
' ; / _'
' .. _'
' --_'
'ồ_'
'ương_'
'đụng_'
'đắng_'
'đảng_'
'đúc_'
'đòn_'
'đàng_'
'đoạt_'
'đan_'
'Đứa_'
'Đồng_'
'Đan_'
'ôm_'
'Ánh_'
'yourselves_'
'youngest_'
'yesterday_'
'xộn_'
'xổ_'
'xưởng_'
'xăng_'
'xăm_'
'xóm_'
'xít_'
'xám_'
'writings_'
'writer_'
'worker_'
'wives_'
'wireless_'
'winning_'
'windows_'
'widely_'
'whom_'
'whales_'
'western_'
'welcome_'
'weekend_'
'wearable_'
'wear_'
'weapon_'
'watts_'
'watched_'
'warrior_'
'warming_'
'warm_'
'vứt_'
'vương_'
'votes_'
'voters_'
'von_'
'volunteers_'
'voices_'
'viêm_'
'vitamin_'
'vessel_'
'vaccines_'
'ups_'
'unprecedented_'
'units_'
'uncover_'
'unbelievable_'
'un_'
'ultraviolet_'
'ultrasound_'
'tống_'
'tần_'
'tạc_'
'tướng_'
'tuỵ_'
'turbines_'
'tua_'
'tu_'
'trệ_'
'trễ_'
'trưa_'
'tráng_'
'trick_'
'tribe_'
'traveling_'
'traumatic_'
'transparency_'
'transformed_'
'transform_'
'traditions_'
'toạ_'
'toys_'
'toxins_'
'toward_'
'touched_'
'torture_'
'tons_'
'ti_'
'thịnh_'
'thắp_'
'thắc_'
'thầm_'
'thâm_'
'thylacine_'
'thus_'
'thou_'
'thirds_'
'thinkers_'
'testosterone_'
'tens_'
'tendency_'
'telescopes_'
'techniques_'
'technique_'
'tea_'
'taxi_'
'tattoos_'
'tattoo_'
'taste_'
'tactics_'
'taboos_'
'tables_'
'sừng_'
'sưởi_'
'sói_'
'symptoms_'
'symbols_'
'symbol_'
'switch_'
'swallowed_'
'sustainability_'
'survey_'
'surveillance_'
'surrounding_'
'surrounded_'
'surprised_'
'surprise_'
'supposedly_'
'supported_'
'supplies_'
'sunlight_'
'suggestions_'
'suggestion_'
'suggest_'
'successfully_'
'succeed_'
'subtle_'
'stunning_'
'struggling_'
'strip_'
'stranger_'
'storytelling_'
'storm_'
'storage_'
'stones_'
'stone_'
'stole_'
'stimulate_'
'statue_'
'static_'
'stands_'
'squared_'
'spring_'
'spoke_'
'spiritual_'
'spinal_'
'spike_'
'spectacular_'
'sons_'
'songs_'
'societal_'
'smiling_'
'smartphone_'
'slums_'
'slowing_'
'slope_'
'sized_'
'sixth_'
'sites_'
'sing_'
'shoulder_'
'shortage_'
'shoot_'
'shocking_'
'shock_'
'shipping_'
'shepherd_'
'shelf_'
'sheets_'
'sheep_'
'shalt_'
'sexuality_'
'settle_'
'session_'
'sentences_'
'sensation_'
'sees_'
'seeds_'
'sculpture_'
'scarce_'
'scanning_'
'sanity_'
'salary_'
'rỡ_'
'rệt_'
'rũ_'
'rô_'
'rãnh_'
'rã_'
'rush_'
'rupees_'
'runs_'
'rubbish_'
'rope_'
'rockets_'
'robust_'
'robotic_'
'risky_'
'rising_'
'reveals_'
'returned_'
'restore_'
'resistant_'
'resistance_'
'resilience_'
'required_'
'request_'
'representation_'
'removed_'
'remove_'
'remind_'
'releases_'
'released_'
'relax_'
'relatives_'
'relation_'
'regular_'
'refugees_'
'reflection_'
'reflected_'
'refers_'
'refer_'
'redefine_'
'records_'
'recorded_'
'recipe_'
'rebuild_'
'realm_'
'realistic_'
'reactions_'
'rays_'
'rats_'
'rarely_'
'rare_'
'randomness_'
'radically_'
'radiation_'
'racing_'
'quỵ_'
'quặc_'
'quấn_'
'quạ_'
'quo_'
'quietly_'
'quiet_'
'purposes_'
'providing_'
'provided_'
'proven_'
'protection_'
'prosthetic_'
'proper_'
'promising_'
'programming_'
'programmers_'
'profits_'
'professor_'
'profession_'
'producing_'
'produces_'
'pro_'
'priority_'
'printer_'
'print_'
'primitive_'
'prevent_'
'prevalent_'
'pretend_'
'presents_'
'presentation_'
'prepared_'
'pregnancy_'
'prefer_'
'powers_'
'powerless_'
'potentially_'
'portrait_'
'politely_'
'plane_'
'pizza_'
'pigs_'
'phơi_'
'phác_'
'photographed_'
'phiến_'
'philosopher_'
'personally_'
'permanent_'
'periodic_'
'percentage_'
'patterns_'
'patch_'
'parties_'
'participated_'
'participate_'
'paralyzed_'
'parallel_'
'paradigm_'
'pants_'
'packaging_'
'owns_'
'overcome_'
'ours_'
'origins_'
'orchestras_'
'orange_'
'optimize_'
'optical_'
'operates_'
'opens_'
'ongoing_'
'official_'
'offered_'
'odds_'
'odd_'
'occupy_'
'nực_'
'nụ_'
'nồng_'
'nề_'
'nấng_'
'nón_'
'nowhere_'
'nitơ_'
'nicely_'
'nhức_'
'nhạo_'
'nhược_'
'nhàng_'
'ngẫm_'
'ngươi_'
'ngưng_'
'ngô_'
'nghiền_'
'nghiêng_'
'neuroscience_'
'naked_'
'mổ_'
'mệt_'
'mầu_'
'mượn_'
'mưu_'
'mông_'
'mép_'
'mài_'
'musicians_'
'movements_'
'monkeys_'
'modifying_'
'mobility_'
'miên_'
'misdirection_'
'minister_'
'minimal_'
'mile_'
'microphone_'
'methods_'
'metan_'
'messages_'
'mega_'
'meetings_'
'mechanical_'
'mathematics_'
'match_'
'masses_'
'manner_'
'mankind_'
'manipulation_'
'mammography_'
'mammogram_'
'mall_'
'mainstream_'
'mainly_'
'mail_'
'lửng_'
'lồng_'
'lấp_'
'lượn_'
'lưỡi_'
'láng_'
'luân_'
'luck_'
'loud_'
'lottery_'
'loose_'
'loop_'
'lock_'
'located_'
'lips_'
'limitations_'
'limit_'
'liberals_'
'leverage_'
'lessons_'
'leather_'
'layer_'
'lawyers_'
'launched_'
'launch_'
'laugh_'
'lau_'
'lands_'
'kệ_'
'kẹt_'
'kèn_'
'kiếp_'
'kiêng_'
'kilos_'
'kilometers_'
'kidney_'
'khỉ_'
'khiêu_'
'jumping_'
'joke_'
'jellyfish_'
'janitors_'
'items_'
'involves_'
'investing_'
'invent_'
'introduces_'
'introduce_'
'intrinsically_'
'interacting_'
'intensity_'
'intense_'
'intact_'
'instant_'
'inspiring_'
'inspire_'
'insist_'
'insane_'
'innovations_'
'initiative_'
'indicating_'
'inch_'
'impose_'
'impaired_'
'imagined_'
'illegal_'
'ignorance_'
'identified_'
'identical_'
'hẻo_'
'hâm_'
'hydro_'
'huỳnh_'
'husbands_'
'hunting_'
'huh_'
'hoành_'
'hoài_'
'housing_'
'houses_'
'horizon_'
'hopefully_'
'hits_'
'historically_'
'historical_'
'herself_'
'helium_'
'heal_'
'headquarters_'
'headed_'
'hatred_'
'hardest_'
'hao_'
'hallucinations_'
'habits_'
'habitat_'
'gìn_'
'guide_'
'guidance_'
'greenhouse_'
'gray_'
'grateful_'
'grandparents_'
'grandchildren_'
'grand_'
'governments_'
'gom_'
'gold_'
'globally_'
'globalized_'
'glasses_'
'gieo_'
'gently_'
'genius_'
'generous_'
'generate_'
'gathering_'
'gather_'
'gases_'
'garbage_'
'funds_'
'functions_'
'fruit_'
'frontier_'
'frog_'
'friendship_'
'freely_'
'framework_'
'fraction_'
'fought_'
'formula_'
'forgot_'
'forced_'
'foods_'
'follows_'
'flower_'
'flooding_'
'floating_'
'flights_'
'flame_'
'fit_'
'fishing_'
'finds_'
'file_'
'fields_'
'feeds_'
'feature_'
'fascinating_'
'fans_'
'false_'
'falls_'
'fake_'
'faith_'
'fairly_'
'failed_'
'factors_'
'facility_'
'facilities_'
'extinction_'
'external_'
'express_'
'expectancy_'
'expanding_'
'exotic_'
'exception_'
'everyday_'
'eureka_'
'ethics_'
'equity_'
'equipped_'
'envision_'
'entrepreneurial_'
'entertainment_'
'enjoy_'
'endangered_'
'encouraging_'
'enables_'
'empty_'
'empire_'
'embrace_'
'embarrassing_'
'elsewhere_'
'element_'
'electrons_'
'electronics_'
'electrodes_'
'elections_'
'elected_'
'efforts_'
'educational_'
'easily_'
'ears_'
'dịp_'
'dẳng_'
'dạo_'
'dưa_'
'dâng_'
'duyệt_'
'duration_'
'dumb_'
'drop_'
'drivers_'
'drilling_'
'drawings_'
'donor_'
'dominated_'
'domain_'
'diều_'
'divorced_'
'division_'
'dive_'
'disorders_'
'discussions_'
'disappear_'
'disabled_'
'dignity_'
'dictionary_'
'determine_'
'detector_'
'detailed_'
'destruction_'
'despair_'
'dependent_'
'demonstrated_'
'demonstrate_'
'democratic_'
'delicious_'
'deliberate_'
'deficits_'
'decrease_'
'debt_'
'deaths_'
'daughters_'
'darkness_'
'củng_'
'cội_'
'cộ_'
'cọ_'
'cưa_'
'cúm_'
'cóc_'
'còi_'
'curious_'
'curiosity_'
'cultures_'
'cube_'
'crying_'
'cry_'
'crucial_'
'crow_'
'crossing_'
'criminals_'
'creation_'
'cow_'
'coverage_'
'courageous_'
'counts_'
'counting_'
'cosmos_'
'corporations_'
'cord_'
'copyright_'
'cooking_'
'convinced_'
'conversations_'
'contrast_'
'contrary_'
'continuity_'
'consumed_'
'conservatives_'
'connecting_'
'concert_'
'concern_'
'concentrate_'
'computational_'
'compound_'
'completed_'
'compelling_'
'comparing_'
'communications_'
'comments_'
'comment_'
'comfort_'
'combined_'
'combat_'
'colored_'
'collaboration_'
'collaborate_'
'coded_'
'clip_'
'clinical_'
'climbing_'
'clay_'
'classes_'
'citizen_'
'circumstances_'
'circulation_'
'circle_'
'chợ_'
'chạp_'
'chôn_'
'chói_'
'chíp_'
'chronic_'
'chose_'
'chess_'
'cheaper_'
'chay_'
'chasing_'
'chaos_'
'channel_'
'chances_'
'challenging_'
'centuries_'
'celebrity_'
'celebration_'
'cay_'
'caused_'
'cartoons_'
'carrying_'
'carrot_'
'caring_'
'caps_'
'capabilities_'
'cap_'
'camp_'
'calm_'
'cacbon_'
'bực_'
'bồn_'
'bồi_'
'bồ_'
'bọt_'
'bọc_'
'bể_'
'bấy_'
'bưu_'
'búa_'
'bóp_'
'bìa_'
'bênh_'
'bê_'
'buồng_'
'burn_'
'bullet_'
'bull_'
'bugs_'
'broadcast_'
'breasts_'
'breaks_'
'branded_'
'boxes_'
'bowl_'
'boring_'
'border_'
'bones_'
'bone_'
'bond_'
'bold_'
'boat_'
'blowing_'
'blogs_'
'blocking_'
'blaming_'
'binary_'
'bills_'
'bent_'
'benign_'
'beneath_'
'beetles_'
'beer_'
'beef_'
'beautifully_'
'beach_'
'battles_'
'basis_'
'barely_'
'band_'
'balanced_'
'bag_'
'awkward_'
'awe_'
'awareness_'
'augmented_'
'attempting_'
'attached_'
'astronomers_'
'assumption_'
'assignment_'
'asset_'
'aside_'
'artistic_'
'article_'
'array_'
'approaching_'
'applause_'
'appeal_'
'antibiotics_'
'angle_'
'analyzed_'
'amounts_'
'amongst_'
'ambitious_'
'airport_'
'aid_'
'agricultural_'
'agent_'
'afternoon_'
'affects_'
'advertising_'
'adult_'
'adapted_'
'acts_'
'active_'
'acoustic_'
'accidentally_'
'academic_'
'abuse_'
'absolute_'
'abandoned_'
'Z_'
'Young_'
'Yorke_'
'Xây_'
'Without_'
'Whoa_'
'Water_'
'W_'
'WK_'
'Vulnerability_'
'Viết_'
'Virginia_'
'Viking_'
'Vi_'
'Uy_'
'Up_'
'Uganda_'
'UCLA_'
'Tên_'
'Type_'
'Tulu_'
'Trở_'
'Trăng_'
'Truth_'
'Tiếp_'
'Tiến_'
'Tim_'
'Thần_'
'Thì_'
'Thom_'
'Third_'
'Tham_'
'Tell_'
'Tehran_'
'Ted_'
'Tanzania_'
'TEDGlobal_'
'Sử_'
'Symphony_'
'Swiss_'
'Swedish_'
'Sunni_'
'Steven_'
'Star_'
'Sputnik_'
'Something_'
'Social_'
'Shakespeare_'
'Sam_'
'Ryan_'
'Rule_'
'Ross_'
'Rose_'
'Ronald_'
'Rome_'
'Roman_'
'Rama_'
'Quần_'
'Quảng_'
'Quý_'
'Prospera_'
'Pretty_'
'Pole_'
'Poland_'
'Please_'
'Pittsburgh_'
'Phật_'
'Philip_'
'Philadelphia_'
'Pauling_'
'Paravicini_'
'Palestinian_'
'PM_'
'Other_'
'Oscar_'
'Olympic_'
'Nữ_'
'Nền_'
'November_'
'Nigerian_'
'Ngôn_'
'Ngành_'
'Ngoài_'
'Next_'
'Never_'
'Neanderthals_'
'Nanopatch_'
'Na_'
'NIH_'
'Mục_'
'Mạch_'
'Mount_'
'Mother_'
'Monday_'
'Modern_'
'Miễn_'
'McChrystal_'
'May_'
'Matthew_'
'Maryland_'
'Margaret_'
'MT_'
'MR_'
'MM_'
'Lịch_'
'Lâm_'
'Loài_'
'Live_'
'Listen_'
'Linus_'
'Licklider_'
'Lesters_'
'Lesterland_'
'Lee_'
'Lady_'
'Laden_'
'LED_'
'Kibera_'
'Khả_'
'Kasparov_'
'Karmapa_'
'Karl_'
'June_'
'Joseph_'
'Jo_'
'Jersey_'
'Jeopardy_'
'Japanese_'
'Jane_'
'Jake_'
'Israelis_'
'Interestingly_'
'Institute_'
'Instagram_'
'Indonesia_'
'Illinois_'
'Hành_'
'Hà_'
'Hoàn_'
'Hmm_'
'Hiệu_'
'Hampshire_'
'Grey_'
'Graham_'
'Gladwell_'
'Giáng_'
'Giá_'
'Give_'
'Girl_'
'Giacometti_'
'General_'
'Gary_'
'Gandhi_'
'Freeman_'
'Francis_'
'Foundation_'
'Five_'
'Fibonacci_'
'F_'
'Everest_'
'Eventually_'
'Europa_'
'England_'
'Egyptian_'
'Edward_'
'Ed_'
'Economist_'
'Economic_'
'During_'
'Duke_'
'Doha_'
'Development_'
'Design_'
'Derartu_'
'Dennis_'
'Deep_'
'December_'
'De_'
'Danny_'
'DIYbio_'
'Cứ_'
'Cụ_'
'Cần_'
'Cơn_'
'Căn_'
'Cây_'
'Colorado_'
'Colombia_'
'Climate_'
'Chủ_'
'Chất_'
'Chaz_'
'Charlotte_'
'Chad_'
'Certainly_'
'Carter_'
'Carnegie_'
'Cargill_'
'Cao_'
'Canadian_'
'Bước_'
'Bruce_'
'Brooks_'
'Brooklyn_'
'Britain_'
'Bono_'
'Bob_'
'Bell_'
'Barack_'
'Babylon_'
'Aurora_'
'August_'
'Atlanta_'
'Asian_'
'Arabia_'
'Angela_'
'Alpha_'
'Almost_'
'Alberto_'
'Aicha_'
'Agnes_'
'Age_'
'Actor_'
'Act_'
'Accenture_'
'AR_'
'AG_'
'900_'
'85_'
'72_'
'62_'
'54_'
'4th_'
'48_'
'46_'
'450_'
'39_'
'36_'
'32_'
'20s_'
'2014_'
'1999_'
'1998_'
'1980s_'
'1970_'
'1950_'
'130_'
' :_'
' , ._'
' , &#_'
'ừ_'
'Ứng_'
'ỏi_'
'ẩm_'
'ả_'
'đứt_'
'đục_'
'đợt_'
'đẽ_'
'đẻ_'
'đắp_'
'đắm_'
'đậy_'
'đầm_'
'đạm_'
'đươc_'
'đính_'
'đãng_'
'điềm_'
'đc_'
'Đợi_'
'Đời_'
'Động_'
'Đỏ_'
'Định_'
'Đề_'
'Đặt_'
'Đấy_'
'Đạo_'
'Đường_'
'Đương_'
'Đôn_'
'Đài_'
'Đoạn_'
'Điện_'
'zoom_'
'zones_'
'youth_'
'yours_'
'yogurt_'
'xốp_'
'xỉ_'
'xả_'
'xí_'
'xé_'
'xáo_'
'xá_'
'xen_'
'worthwhile_'
'worries_'
'workplaces_'
'wondering_'
'withstand_'
'wire_'
'wings_'
'wing_'
'wine_'
'wider_'
'whoever_'
'whistling_'
'whispers_'
'wherever_'
'whatsoever_'
'wet_'
'west_'
'websites_'
'weather_'
'waters_'
'waterproof_'
'walks_'
'vờ_'
'vội_'
'vẫy_'
'vần_'
'vác_'
'vàn_'
'vulnerability_'
'voting_'
'vocabulary_'
'viền_'
'vital_'
'visiting_'
'visited_'
'visions_'
'visceral_'
'virút_'
'violin_'
'vice_'
'via_'
'veteran_'
'verb_'
'venues_'
'variation_'
'van_'
'uy_'
'utter_'
'usual_'
'upward_'
'upside_'
'unlike_'
'universities_'
'unity_'
'unimaginable_'
'unequal_'
'underway_'
'underneath_'
'underground_'
'unconsciously_'
'unconscious_'
'unclear_'
'unable_'
'tụt_'
'tụi_'
'tởm_'
'tằm_'
'tạng_'
'túng_'
'tôm_'
'tát_'
'typically_'
'twisting_'
'tube_'
'trục_'
'trỗi_'
'trọn_'
'trìu_'
'trêu_'
'trá_'
'trusted_'
'troll_'
'triễn_'
'triều_'
'tritium_'
'trillion_'
'treadmill_'
'trauma_'
'transplants_'
'transparent_'
'translator_'
'translating_'
'transistors_'
'transistor_'
'transformative_'
'trajectory_'
'trains_'
'tragedy_'
'traces_'
'trace_'
'toy_'
'tours_'
'toughest_'
'tortured_'
'tooth_'
'titled_'
'title_'
'tissues_'
'tier_'
'tied_'
'thối_'
'thỏ_'
'thề_'
'thắt_'
'thượng_'
'thua_'
'thrown_'
'thread_'
'thoáng_'
'thiếp_'
'thinker_'
'therapies_'
'theoretical_'
'texting_'
'textbooks_'
'tests_'
'terrorists_'
'terror_'
'teo_'
'tension_'
'tendencies_'
'telephones_'
'telephone_'
'teenagers_'
'teen_'
'tearing_'
'tear_'
'teapot_'
'teams_'
'targets_'
'tanks_'
'tale_'
'sơn_'
'súp_'
'súc_'
'sô_'
'sò_'
'sét_'
'sáp_'
'syndrome_'
'symbiosis_'
'swap_'
'sustained_'
'suspended_'
'surviving_'
'surveys_'
'surroundings_'
'suppressing_'
'sulfur_'
'suitcase_'
'suggesting_'
'suck_'
'substantial_'
'submitted_'
'stunned_'
'student_'
'strongly_'
'stroke_'
'strive_'
'strings_'
'string_'
'stresses_'
'strengths_'
'stratosphere_'
'storms_'
'storing_'
'stopping_'
'stirring_'
'stigmatizing_'
'stereotypes_'
'stereo_'
'steering_'
'stats_'
'standards_'
'stamp_'
'stack_'
'squirrel_'
'spreads_'
'spontaneously_'
'spontaneous_'
'spite_'
'spinning_'
'spine_'
'spin_'
'spider_'
'spaghetti_'
'spacecraft_'
'sounding_'
'sounded_'
'soluble_'
'solo_'
'soldier_'
'snobbery_'
'smile_'
'smelling_'
'smarter_'
'slum_'
'slowed_'
'slogan_'
'sling_'
'slept_'
'sits_'
'sink_'
'simultaneously_'
'simplicity_'
'simpler_'
'silk_'
'significantly_'
'signed_'
'sick_'
'shy_'
'shove_'
'shortly_'
'shop_'
'shooting_'
'shoo_'
'shifted_'
'shells_'
'sharp_'
'shareholders_'
'shallow_'
'shadow_'
'sexy_'
'settling_'
'serving_'
'serves_'
'served_'
'serve_'
'serotonin_'
'serenity_'
'sensory_'
'sensor_'
'sensitivity_'
'selves_'
'sells_'
'selective_'
'select_'
'section_'
'season_'
'se_'
'sculptures_'
'scroll_'
'screaming_'
'sciences_'
'schizophrenia_'
'scenario_'
'scary_'
'satellites_'
'satellite_'
'sanitation_'
'sanitary_'
'sandwich_'
'salt_'
'sales_'
'safer_'
'sacrifice_'
'rực_'
'rồng_'
'rọi_'
'rơm_'
'rùa_'
'rách_'
'ruins_'
'rose_'
'rooms_'
'roofs_'
'roles_'
'rode_'
'rocking_'
'robotics_'
'roads_'
'risks_'
'riding_'
'ri_'
'rewards_'
'revenue_'
'retreat_'
'responsibilities_'
'residents_'
'resemble_'
'researching_'
'rescue_'
'represented_'
'reo_'
'rented_'
'remote_'
'reminded_'
'remain_'
'rely_'
'reliable_'
'relaxed_'
'regularly_'
'regional_'
'reform_'
'referring_'
'reef_'
'reduced_'
'recycled_'
'recovered_'
'recording_'
'recognized_'
'recognition_'
'reassure_'
'readers_'
'ratio_'
'raising_'
'qúi_'
'quẩn_'
'quăng_'
'queens_'
'que_'
'quartile_'
'quantum_'
'pyramids_'
'puzzle_'
'pushing_'
'pursue_'
'purchase_'
'puberty_'
'psychology_'
'proxy_'
'proves_'
'proton_'
'protects_'
'prosperity_'
'proposition_'
'properties_'
'proof_'
'promises_'
'progressively_'
'progeria_'
'profoundly_'
'profile_'
'problematic_'
'probe_'
'probability_'
'privilege_'
'prisons_'
'prisoners_'
'priorities_'
'prior_'
'prints_'
'printed_'
'prime_'
'pride_'
'prevention_'
'preservation_'
'prescription_'
'prepare_'
'prediction_'
'predicted_'
'predators_'
'practicing_'
'postcards_'
'positions_'
'portraits_'
'porous_'
'poles_'
'pole_'
'polar_'
'poison_'
'pointing_'
'pocket_'
'plywood_'
'plutocracy_'
'plug_'
'plenty_'
'plays_'
'platforms_'
'planes_'
'pill_'
'pigeon_'
'pies_'
'picks_'
'pianist_'
'phích_'
'pháo_'
'phàn_'
'physiology_'
'physiological_'
'physicists_'
'physician_'
'photos_'
'philanthropy_'
'phenomena_'
'phases_'
'phao_'
'phanh_'
'pests_'
'pessimistic_'
'personalization_'
'permission_'
'perceive_'
'penetrate_'
'payload_'
'pause_'
'paste_'
'passport_'
'passing_'
'passengers_'
'passage_'
'partnership_'
'parody_'
'parks_'
'paperwork_'
'pancreas_'
'pairs_'
'pair_'
'pad_'
'package_'
'owner_'
'owned_'
'overwhelmed_'
'oven_'
'origami_'
'orientation_'
'organism_'
'org_'
'optimism_'
'opposed_'
'operation_'
'olds_'
'offspring_'
'officials_'
'offices_'
'officer_'
'offering_'
'occupations_'
'occasion_'
'obsolete_'
'obsession_'
'observed_'
'observation_'
'obesity_'
'nứt_'
'nếm_'
'nóc_'
'nâu_'
'nàn_'
'nutrition_'
'nurture_'
'nudges_'
'noxious_'
'notch_'
'nonviolence_'
'nonverbals_'
'nodes_'
'node_'
'nights_'
'nightmare_'
'nhộn_'
'nhồi_'
'nhối_'
'nhọc_'
'nhôm_'
'nhóc_'
'nhì_'
'nháp_'
'nhàn_'
'nhiễu_'
'ngừ_'
'ngụ_'
'ngắt_'
'ngả_'
'ngước_'
'ngư_'
'ngây_'
'ngào_'
'ngoặt_'
'nghiệt_'
'neutral_'
'neuroscientist_'
'neurons_'
'networked_'
'nerdy_'
'neighbor_'
'needle_'
'nectar_'
'nearest_'
'narratives_'
'naive_'
'na_'
'mớ_'
'mộng_'
'mồm_'
'mỏi_'
'mịn_'
'mẹo_'
'mầm_'
'mảng_'
'mười_'
'mĩ_'
'móng_'
'mòn_'
'méo_'
'mác_'
'mày_'
'mythology_'
'mystery_'
'mutual_'
'mutation_'
'musical_'
'mundane_'
'multiverse_'
'multinational_'
'movies_'
'motivate_'
'monster_'
'monkey_'
'momentum_'
'mode_'
'mix_'
'mistakes_'
'minority_'
'mining_'
'mini_'
'mimics_'
'mimic_'
'milk_'
'midnight_'
'microscope_'
'mice_'
'mi_'
'metric_'
'methodology_'
'meter_'
'merely_'
'member_'
'megawatts_'
'medieval_'
'medications_'
'medication_'
'measurements_'
'mathematician_'
'mates_'
'mate_'
'masters_'
'marrow_'
'marketers_'
'marine_'
'manual_'
'manipulate_'
'managers_'
'manage_'
'maintain_'
'magnesium_'
'lột_'
'lộng_'
'lọ_'
'lẫy_'
'lượm_'
'lưỡng_'
'lúng_'
'lúa_'
'lùng_'
'lô_'
'lân_'
'luỵ_'
'luxury_'
'lui_'
'loé_'
'lonely_'
'locomotion_'
'locked_'
'liễu_'
'liver_'
'literature_'
'listener_'
'listened_'
'linear_'
'limbs_'
'limbic_'
'limb_'
'likes_'
'lightweight_'
'lifting_'
'lifestyle_'
'lies_'
'liberty_'
'leopard_'
'lens_'
'length_'
'lego_'
'legendary_'
'leaves_'
'learns_'
'lays_'
'lawyer_'
'lap_'
'landscapes_'
'landed_'
'laid_'
'labs_'
'laboratory_'
'label_'
'kép_'
'kites_'
'kindness_'
'kilograms_'
'kilogram_'
'kills_'
'khốc_'
'khói_'
'khép_'
'khuấy_'
'khuya_'
'khoát_'
'khoanh_'
'khoang_'
'khiết_'
'keen_'
'junk_'
'journal_'
'jam_'
'jail_'
'item_'
'isotopes_'
'isolated_'
'island_'
'irrelevant_'
'irrational_'
'iron_'
'ion_'
'involve_'
'investments_'
'inventor_'
'intuition_'
'introduction_'
'intrigued_'
'intractable_'
'interviews_'
'interventions_'
'intervention_'
'interrupted_'
'interpret_'
'intentional_'
'integration_'
'integrate_'
'insult_'
'instruments_'
'instructions_'
'installations_'
'installation_'
'instability_'
'insights_'
'innate_'
'inmates_'
'initiated_'
'initial_'
'ingredients_'
'ingredient_'
'ingenious_'
'informed_'
'inflate_'
'infections_'
'indoors_'
'indirect_'
'inches_'
'incentives_'
'illustrates_'
'idiot_'
'identities_'
'ideals_'
'iceberg_'
'i_'
'hệt_'
'hả_'
'hăng_'
'hóc_'
'hàn_'
'hyper_'
'hygiene_'
'hurt_'
'hunger_'
'household_'
'hostile_'
'horses_'
'horse_'
'holiday_'
'historic_'
'historian_'
'highlight_'
'hierarchy_'
'hiding_'
'heroic_'
'heights_'
'healing_'
'headlines_'
'hated_'
'harder_'
'happily_'
'hanging_'
'handy_'
'handshake_'
'hacking_'
'hack_'
'habitats_'
'gầm_'
'gào_'
'gun_'
'guessed_'
'guar_'
'grind_'
'graphs_'
'grandma_'
'grams_'
'grain_'
'graduation_'
'grabbed_'
'governors_'
'governance_'
'govern_'
'gonna_'
'golden_'
'god_'
'goals_'
'glowing_'
'glory_'
'glimpse_'
'glamorous_'
'girlfriend_'
'gien_'
'ghim_'
'ghen_'
'gesture_'
'gerontology_'
'geographical_'
'geo_'
'genomes_'
'genocide_'
'geneticist_'
'genetically_'
'generally_'
'gender_'
'gel_'
'gecko_'
'gay_'
'gathered_'
'gardens_'
'gang_'
'functional_'
'frustrated_'
'fruits_'
'friendly_'
'friction_'
'fragile_'
'founder_'
'founded_'
'foundations_'
'foster_'
'fossil_'
'format_'
'foremost_'
'forcing_'
'foraging_'
'font_'
'folding_'
'folded_'
'focusing_'
'flowing_'
'floods_'
'flavored_'
'flashing_'
'flag_'
'fischeri_'
'fired_'
'finest_'
'findings_'
'files_'
'figures_'
'figured_'
'fiber_'
'fellows_'
'fees_'
'feelings_'
'federal_'
'fed_'
'features_'
'fears_'
'fatal_'
'fascinated_'
'fantasy_'
'fancy_'
'famously_'
'fails_'
'extinct_'
'extent_'
'exponentially_'
'explosion_'
'explored_'
'exploit_'
'explicit_'
'experiencing_'
'expansion_'
'expands_'
'expanded_'
'exile_'
'exhibition_'
'exercises_'
'excuse_'
'eternity_'
'estimate_'
'erotic_'
'eradicate_'
'equals_'
'enzim_'
'entry_'
'entrepreneur_'
'entities_'
'enter_'
'ending_'
'employment_'
'emerges_'
'emerged_'
'eleventh_'
'elevator_'
'elephants_'
'eldest_'
'elaborate_'
'egg_'
'educate_'
'edition_'
'edit_'
'edges_'
'ecosystems_'
'ease_'
'earliest_'
'e_'
'dỡ_'
'dời_'
'dẫu_'
'dạ_'
'dưng_'
'dũng_'
'dó_'
'dâu_'
'dropping_'
'drew_'
'dress_'
'dramatically_'
'dragging_'
'draft_'
'downstairs_'
'dot_'
'dose_'
'donors_'
'dominant_'
'dolphin_'
'documenting_'
'diving_'
'divine_'
'diverse_'
'disturbing_'
'distribute_'
'distinguishes_'
'disruptive_'
'disputes_'
'discussed_'
'discuss_'
'disasters_'
'directions_'
'dies_'
'dictionaries_'
'dialogue_'
'diagram_'
'diabetes_'
'devoted_'
'devils_'
'developmental_'
'devastating_'
'devastated_'
'destructive_'
'destroy_'
'desperation_'
'desperate_'
'designs_'
'deserve_'
'desert_'
'depressing_'
'deployed_'
'dependence_'
'dentures_'
'demonstration_'
'dementia_'
'demanding_'
'delivery_'
'defeat_'
'deeper_'
'dedicated_'
'decompiculture_'
'decides_'
'deals_'
'daytime_'
'dating_'
'dang_'
'damn_'
'damaged_'
'cự_'
'cồn_'
'cọc_'
'cẩu_'
'cúi_'
'cuồng_'
'cuts_'
'customers_'
'customer_'
'curve_'
'currency_'
'cruise_'
'crowded_'
'crises_'
'crimes_'
'creators_'
'creations_'
'crashed_'
'crash_'
'crap_'
'crank_'
'craft_'
'crackers_'
'covers_'
'covering_'
'courses_'
'counter_'
'cotton_'
'cortex_'
'corridor_'
'corporation_'
'corners_'
'corn_'
'corals_'
'copies_'
'coordination_'
'cooperation_'
'cook_'
'convince_'
'controlling_'
'contributions_'
'container_'
'contained_'
'contain_'
'constructed_'
'constraints_'
'consensus_'
'conscious_'
'conscience_'
'confusing_'
'confused_'
'confrontation_'
'confront_'
'confirmed_'
'confident_'
'concluded_'
'concentration_'
'components_'
'component_'
'compass_'
'comparison_'
'commute_'
'comedy_'
'column_'
'collectively_'
'collecting_'
'colleague_'
'collaborator_'
'cockpit_'
'coastal_'
'coach_'
'clubs_'
'closing_'
'clinically_'
'cliff_'
'clients_'
'classical_'
'clapping_'
'claims_'
'claim_'
'civilizations_'
'circuits_'
'cigarettes_'
'cigarette_'
'chổ_'
'chốn_'
'chệch_'
'chùm_'
'chênh_'
'chà_'
'chuộng_'
'chemicals_'
'cheated_'
'cheat_'
'characters_'
'characteristic_'
'centers_'
'cellular_'
'cello_'
'celebrated_'
'ceiling_'
'cave_'
'cat_'
'casualties_'
'cash_'
'cart_'
'carries_'
'carefully_'
'cared_'
'cards_'
'captured_'
'captain_'
'capitalism_'
'canh_'
'candy_'
'cams_'
'camps_'
'camels_'
'calculated_'
'calculate_'
'calcium_'
'cake_'
'cafe_'
'bời_'
'bổng_'
'bến_'
'bẻ_'
'bẫy_'
'bú_'
'bói_'
'báu_'
'báng_'
'bám_'
'bypass_'
'buồm_'
'buys_'
'butterflies_'
'bush_'
'burst_'
'bureaucratic_'
'bump_'
'bucks_'
'brutal_'
'brush_'
'browser_'
'broadly_'
'breeding_'
'breathing_'
'brands_'
'brakes_'
'boundaries_'
'bottles_'
'bluegrass_'
'blogging_'
'blogger_'
'blinded_'
'blend_'
'blanket_'
'blah_'
'bizarre_'
'bird_'
'biotech_'
'biophony_'
'bio_'
'bikes_'
'biases_'
'bet_'
'beneficial_'
'beloved_'
'belongs_'
'believing_'
'behalf_'
'begun_'
'beekeepers_'
'beaches_'
'bazơ_'
'basketball_'
'banh_'
'bandstand_'
'balancing_'
'baked_'
'badly_'
'axít_'
'axes_'
'avoid_'
'aviation_'
'avatar_'
'automatically_'
'automatic_'
'authority_'
'authorities_'
'attractive_'
'attitude_'
'attach_'
'atomic_'
'atom_'
'athletic_'
'atheist_'
'asylum_'
'assured_'
'assumptions_'
'assistance_'
'aspect_'
'arrive_'
'arrested_'
'army_'
'arguments_'
'arguing_'
'arenas_'
'archive_'
'architects_'
'architect_'
'approved_'
'appreciated_'
'apple_'
'apartments_'
'antibodies_'
'anthropologists_'
'anthropologist_'
'ant_'
'anniversary_'
'anchor_'
'anatomy_'
'analyze_'
'altitude_'
'album_'
'aim_'
'ah_'
'agenda_'
'agencies_'
'aged_'
'afterwards_'
'advocating_'
'adoption_'
'addition_'
'addiction_'
'addicted_'
'adaptive_'
'adaptation_'
'actor_'
'activate_'
'acknowledge_'
'acid_'
'account_'
'accidental_'
'accepting_'
'acceptable_'
'accent_'
'accelerating_'
'abundance_'
'abroad_'
'Ze_'
'Yemen_'
'Xanh_'
'Wofford_'
'Within_'
'Welcome_'
'Watch_'
'Walmart_'
'Wait_'
'Vịnh_'
'Vận_'
'Vương_'
'Vùng_'
'Vô_'
'Vua_'
'Việt_'
'Ventura_'
'Venice_'
'Venezuela_'
'Valdez_'
'Uỷ_'
'Usually_'
'Unlike_'
'Union_'
'Uh_'
'USD_'
'UE_'
'Tử_'
'Tặc_'
'Tạo_'
'Tâm_'
'Tàng_'
'Typically_'
'Turin_'
'Turbo_'
'Tumor_'
'Trắng_'
'Trí_'
'Triceratops_'
'Tree_'
'Treating_'
'Trang_'
'Trade_'
'Toàn_'
'Torvalds_'
'Toronto_'
'Too_'
'Tokyo_'
'Tinto_'
'Thức_'
'Thượng_'
'Thưởng_'
'Thương_'
'Thú_'
'Tháp_'
'Thursday_'
'Terence_'
'TS_'
'TNCs_'
'TEDx_'
'TEDTalk_'
'Sức_'
'Sợ_'
'Số_'
'Sáng_'
'Sylvia_'
'Switzerland_'
'Super_'
'Suddenly_'
'Sudan_'
'Sub_'
'Stygimoloch_'
'Studs_'
'Students_'
'Stewart_'
'Stefan_'
'Stanley_'
'Stalin_'
'Soviet_'
'Sorry_'
'Sophia_'
'Society_'
'SmartBird_'
'Small_'
'Skype_'
'Similar_'
'Sierra_'
'Side_'
'Siberia_'
'Shirley_'
'Shame_'
'Serious_'
'Seligman_'
'Secondly_'
'Search_'
'Saul_'
'Samuel_'
'Sachs_'
'Sabia_'
'Rằng_'
'Rõ_'
'Rufus_'
'Royal_'
'Roy_'
'Rosalie_'
'Road_'
'Ritalin_'
'Rezero_'
'Reed_'
'Red_'
'Real_'
'Reagan_'
'Ram_'
'Ralph_'
'Rachel_'
'Quyền_'
'Queen_'
'Princeton_'
'Potter_'
'PostSecret_'
'Pompidou_'
'Picasso_'
'Phượng_'
'Phát_'
'Phong_'
'Philippe_'
'Phil_'
'Perasa_'
'Paula_'
'Pascal_'
'Parkinson_'
'Palextin_'
'Palestinians_'
'Pacific_'
'PC_'
'Only_'
'Online_'
'Olympics_'
'Oliver_'
'Oldenburg_'
'Oklahoma_'
'Ohio_'
'Ocean_'
'Não_'
'Number_'
'Novocure_'
'Northern_'
'Nokia_'
'Nino_'
'Nikola_'
'Night_'
'Nhất_'
'Ngược_'
'Nguồn_'
'Ngoại_'
'News_'
'Nevada_'
'Netherlands_'
'Natural_'
'Naked_'
'Nah_'
'NSA_'
'Mức_'
'Mộc_'
'Mười_'
'Mùa_'
'Myhrvold_'
'Mumbai_'
'Moscow_'
'Money_'
'Model_'
'Mises_'
'Minister_'
'Minh_'
'Mike_'
'Miguel_'
'Michigan_'
'Meyer_'
'Metz_'
'Mesopotamia_'
'Medicine_'
'Maz_'
'Matthieu_'
'Mathematica_'
'Mary_'
'Marx_'
'Markus_'
'Marduk_'
'Ma_'
'MBI_'
'Lời_'
'Lớn_'
'Lạy_'
'Lại_'
'Luân_'
'Lothar_'
'List_'
'Linux_'
'Legacy_'
'Law_'
'Las_'
'Ladies_'
'Laboratory_'
'LEDs_'
'Kỹ_'
'Kế_'
'Kính_'
'Kích_'
'Kì_'
'Kuwait_'
'Kosovo_'
'Kong_'
'Kofi_'
'Khối_'
'Khó_'
'Khá_'
'Kenny_'
'Katrina_'
'Kabul_'
'Juanderson_'
'Johnson_'
'Johns_'
'Joachim_'
'Jill_'
'Jews_'
'Jefferson_'
'Jacques_'
'Jackson_'
'JE_'
'Istanbul_'
'Israeli_'
'Isn_'
'Ireland_'
'Inconvenient_'
'Ice_'
'ISAF_'
'IQ_'
'Hồng_'
'Hungary_'
'Hundreds_'
'Humanity_'
'Human_'
'Huh_'
'Huck_'
'Hoạt_'
'Hoàng_'
'Hindu_'
'Hill_'
'Hicks_'
'Henry_'
'Help_'
'Hazleton_'
'Harry_'
'Harriet_'
'Harlem_'
'Had_'
'Guy_'
'Guier_'
'Greg_'
'Gould_'
'Gordon_'
'Goldman_'
'Glass_'
'Gió_'
'Git_'
'Germany_'
'Georgia_'
'Gen_'
'Gates_'
'Gando_'
'Game_'
'Gallery_'
'Galapagos_'
'Fulbright_'
'Friday_'
'Frankie_'
'Ford_'
'Finland_'
'Financial_'
'Fellow_'
'Fall_'
'Face_'
'FDA_'
'Exactly_'
'Evelyn_'
'Essex_'
'Elvis_'
'Ellen_'
'Elizabeth_'
'Edinburgh_'
'Dường_'
'Dàn_'
'Dutch_'
'Disorder_'
'Diana_'
'Diamond_'
'Desert_'
'Department_'
'Democratic_'
'DP_'
'Cổ_'
'Cảnh_'
'Cá_'
'Cut_'
'Curiosity_'
'County_'
'Couldn_'
'Conference_'
'Company_'
'Companies_'
'Commentator_'
'College_'
'Claes_'
'Chương_'
'Church_'
'Chiến_'
'Chip_'
'Chile_'
'Child_'
'Chi_'
'Cheryl_'
'Chernobyl_'
'Chen_'
'Celine_'
'Caucasus_'
'Catholic_'
'Casey_'
'CSI_'
'CP_'
'CIA_'
'Bốn_'
'Bảng_'
'Buổi_'
'Building_'
'Budrus_'
'Buddhist_'
'Browne_'
'Brand_'
'Boys_'
'Boy_'
'Boulder_'
'Botswana_'
'Bonnet_'
'Bionicle_'
'Between_'
'Best_'
'Berlin_'
'Benjamín_'
'Behar_'
'Basically_'
'Banjo_'
'Bahamas_'
'Bacon_'
'Baby_'
'BRD4_'
'BP_'
'Aye_'
'Autodesk_'
'Audience_'
'Aubrey_'
'Asperger_'
'Aristotle_'
'Arctic_'
'Apollo_'
'Anyway_'
'Anthony_'
'Annie_'
'Amanda_'
'Alps_'
'Along_'
'AlloSphere_'
'Alexander_'
'Airstream_'
'Against_'
'Achilles_'
'According_'
'Academy_'
'AV_'
'AM_'
'ABC_'
'; ... _'
': _'
'98_'
'96_'
'70s_'
'7000_'
'64_'
'58_'
'56_'
'544_'
'50s_'
'47_'
'43_'
'42_'
'40s_'
'37_'
'350_'
'2050_'
'1990s_'
'1983_'
'1957_'
'1930s_'
'1928_'
'1910_'
'170_'
'160_'
'154_'
'110_'
'101_'
'00_'
' : &#_'
' . ._'
' -_'
' --- _'
' %_'
' % , _'
'Ừ_'
'Ờ_'
'ớn_'
'ổng_'
'ắp_'
'ắc_'
'ấp_'
'Ảo_'
'ươm_'
'Ơn_'
'đỗi_'
'đỏi_'
'đọng_'
'đệm_'
'đệ_'
'đặn_'
'đấm_'
'đả_'
'đũa_'
'đùi_'
'đê_'
'đãi_'
'Đồ_'
'Đế_'
'Đầy_'
'Đạt_'
'Đưa_'
'Đáng_'
'Đào_'
'Đàn_'
'Điên_'
'Đi_'
'út_'
'úp_'
'Úi_'
'Ít_'
'Âm_'
'yard_'
'xứ_'
'xịt_'
'xắn_'
'xướng_'
'xô_'
'xuồng_'
'xoắn_'
'xoa_'
'xiên_'
'xentimet_'
'xay_'
'writers_'
'wrist_'
'wrap_'
'wounded_'
'wound_'
'worship_'
'worrying_'
'workplace_'
'workforce_'
'wood_'
'wonders_'
'wolves_'
'wiser_'
'wires_'
'wirelessly_'
'wiped_'
'wipe_'
'winner_'
'wingsuit_'
'willingness_'
'wildly_'
'wildlife_'
'wholly_'
'wholesale_'
'whiteboards_'
'whiskey_'
'whipped_'
'whimsical_'
'whilst_'
'wheels_'
'whale_'
'wetlands_'
'welfare_'
'weighs_'
'weed_'
'webcam_'
'weaknesses_'
'weak_'
'waving_'
'waterskier_'
'waterfall_'
'watches_'
'wasteful_'
'washing_'
'wash_'
'warehouse_'
'wanting_'
'wandering_'
'waking_'
'waited_'
'vừng_'
'vụt_'
'vớ_'
'vỉa_'
'vệt_'
'vặt_'
'vắng_'
'vẩn_'
'vấp_'
'vạn_'
'vượng_'
'vượn_'
'vướng_'
'vùi_'
'võng_'
'võ_'
'vôi_'
'vít_'
'vãn_'
'vây_'
'váy_'
'vuốt_'
'voyeurism_'
'voted_'
'volunteered_'
'volunteer_'
'void_'
'vocal_'
'việt_'
'vivid_'
'vitro_'
'visualization_'
'virginity_'
'violation_'
'villages_'
'victory_'
'victim_'
'vibrant_'
'veterans_'
'vest_'
'versions_'
'versa_'
'verifiable_'
'verge_'
'verbs_'
'venture_'
'venom_'
'vegetation_'
'vectors_'
'vaulter_'
'varied_'
'variant_'
'valuing_'
'valid_'
'vacuum_'
'vacant_'
'va_'
'uyên_'
'urgency_'
'urbanization_'
'uranium_'
'upwards_'
'upgrade_'
'unwanted_'
'unprotected_'
'unpredictable_'
'unpopular_'
'unpleasant_'
'universality_'
'united_'
'unification_'
'unhappy_'
'unfolding_'
'unfold_'
'unfiltered_'
'unexpected_'
'undiagnosed_'
'understands_'
'underdog_'
'underdeveloped_'
'uncontrolled_'
'uh_'
'tựu_'
'tụng_'
'tở_'
'tột_'
'tỉa_'
'tẻ_'
'tảo_'
'tưới_'
'tơ_'
'túp_'
'túm_'
'tít_'
'typed_'
'tying_'
'tweet_'
'tuộc_'
'turnover_'
'turmoil_'
'turkey_'
'turbine_'
'tunnels_'
'tunnel_'
'tuned_'
'tuna_'
'tsunami_'
'trờ_'
'trớ_'
'trội_'
'trương_'
'trũng_'
'trôn_'
'trán_'
'trusting_'
'truck_'
'troublemaker_'
'tro_'
'triệt_'
'trips_'
'tribal_'
'triangles_'
'triangle_'
'tremor_'
'treaty_'
'treating_'
'transport_'
'transmitting_'
'transmitted_'
'transmits_'
'translation_'
'translated_'
'transformation_'
'transactions_'
'trance_'
'traits_'
'trailers_'
'trafficking_'
'traffickers_'
'tracing_'
'toxin_'
'tower_'
'torturing_'
'torn_'
'torch_'
'topos_'
'tong_'
'tolerance_'
'token_'
'toes_'
'toaster_'
'tiệt_'
'tivi_'
'titles_'
'tired_'
'timing_'
'timescale_'
'timeline_'
'tiles_'
'tighter_'
'tight_'
'tiger_'
'ticking_'
'thừng_'
'thẹn_'
'thặng_'
'thằng_'
'thắn_'
'thạc_'
'thùa_'
'thòi_'
'thêu_'
'thèm_'
'thâu_'
'thât_'
'thuỳ_'
'thun_'
'thumb_'
'thrust_'
'throwing_'
'thrilling_'
'threw_'
'threshold_'
'threats_'
'threaten_'
'thrash_'
'thoi_'
'thoa_'
'thiền_'
'thirty_'
'thick_'
'thereby_'
'therapists_'
'theories_'
'texts_'
'textile_'
'terrorism_'
'terrifying_'
'terrified_'
'terribly_'
'terrain_'
'tenths_'
'tent_'
'temptation_'
'tempo_'
'temple_'
'temperatures_'
'teeniest_'
'teenager_'
'techno_'
'technically_'
'tech_'
'te_'
'taxes_'
'tastes_'
'tasks_'
'taped_'
'tao_'
'tananger_'
'talented_'
'takeoff_'
'tailed_'
'tag_'
'tactical_'
'tablet_'
'sủa_'
'sụn_'
'sởi_'
'sờ_'
'sộ_'
'sỏi_'
'sỏ_'
'sấu_'
'sài_'
'systematic_'
'synthesizing_'
'symphony_'
'symphonies_'
'swoop_'
'switching_'
'switched_'
'swept_'
'sweetness_'
'sweat_'
'suối_'
'suýt_'
'suôn_'
'sustains_'
'sustaining_'
'sustain_'
'suspect_'
'sushi_'
'survivor_'
'survived_'
'surgical_'
'surgeons_'
'surgeon_'
'surge_'
'supple_'
'superstar_'
'supermassive_'
'supermarket_'
'superiority_'
'supercomputer_'
'sunphua_'
'sunk_'
'sums_'
'summit_'
'summary_'
'sulfide_'
'sulfate_'
'suited_'
'suffers_'
'suey_'
'sucking_'
'successes_'
'succeeding_'
'succeeded_'
'subway_'
'suburbia_'
'substances_'
'subsidies_'
'subset_'
'subconscious_'
'structural_'
'struck_'
'strokes_'
'striking_'
'stressed_'
'streaming_'
'stray_'
'strawberry_'
'strain_'
'stores_'
'stimulating_'
'stifle_'
'stepping_'
'stepped_'
'stealing_'
'steal_'
'steak_'
'steady_'
'staying_'
'statistic_'
'statement_'
'stately_'
'starlight_'
'staring_'
'stare_'
'standpoint_'
'stairs_'
'staggering_'
'stages_'
'stadium_'
'stable_'
'stabilize_'
'stability_'
'squid_'
'squeeze_'
'spray_'
'spouse_'
'sports_'
'sport_'
'spores_'
'sponge_'
'splitting_'
'splashy_'
'spill_'
'spiky_'
'spikes_'
'spheres_'
'sphere_'
'spells_'
'specialist_'
'speaks_'
'spark_'
'span_'
'soạn_'
'sourcing_'
'soup_'
'soundscapes_'
'soundscape_'
'sophomore_'
'sophistication_'
'soot_'
'sonicate_'
'sometime_'
'someday_'
'sofa_'
'sociable_'
'soccer_'
'snakes_'
'snack_'
'smooth_'
'smallpox_'
'slower_'
'slip_'
'sleeping_'
'slavery_'
'skyscraper_'
'skydiving_'
'skull_'
'skirts_'
'skies_'
'sketches_'
'skeptics_'
'sitos_'
'sinister_'
'singers_'
'simulation_'
'similarity_'
'similarities_'
'silver_'
'silly_'
'significance_'
'siblings_'
'shutter_'
'shrine_'
'shrimps_'
'shoulders_'
'shots_'
'shops_'
'shining_'
'shifting_'
'sharks_'
'shareable_'
'shall_'
'shaking_'
'shadows_'
'sexually_'
'sewed_'
'severely_'
'settlement_'
'server_'
'sequenced_'
'sequence_'
'separated_'
'senses_'
'sends_'
'sen_'
'seemingly_'
'seed_'
'secular_'
'secrets_'
'secretly_'
'seaweed_'
'seawater_'
'seasons_'
'seamlessly_'
'seamless_'
'sculpting_'
'scrutiny_'
'screenshot_'
'screening_'
'scholarship_'
'scholar_'
'schizophrenic_'
'scheme_'
'scent_'
'scattered_'
'scarf_'
'scares_'
'scans_'
'scanners_'
'scanned_'
'savvy_'
'saves_'
'savanna_'
'saunter_'
'sauce_'
'satisfying_'
'satisfy_'
'sands_'
'sandalwood_'
'saliva_'
'salad_'
'safely_'
'rỗng_'
'rổ_'
'rệp_'
'rặng_'
'rậm_'
'rầu_'
'rảnh_'
'rạc_'
'rưởi_'
'rìa_'
'rà_'
'ruồi_'
'rushed_'
'rulers_'
'rubber_'
'ru_'
'row_'
'rotates_'
'rot_'
'rong_'
'romantic_'
'rolls_'
'rocks_'
'robbing_'
'rob_'
'rivals_'
'rivalries_'
'rituals_'
'ritual_'
'risking_'
'riots_'
'ringing_'
'rightly_'
'rigged_'
'rig_'
'riders_'
'rider_'
'rhythms_'
'rhythm_'
'revolutionary_'
'reviews_'
'reversing_'
'reversible_'
'revelation_'
'reuse_'
'returns_'
'retina_'
'rethink_'
'retention_'
'retaining_'
'retail_'
'resting_'
'responsive_'
'resonance_'
'resist_'
'resilient_'
'reset_'
'reserve_'
'republic_'
'reproduce_'
'repression_'
'representatives_'
'representative_'
'reports_'
'reporter_'
'replacing_'
'replaced_'
'repertory_'
'repeatedly_'
'repeated_'
'remembering_'
'remediation_'
'remained_'
'relies_'
'relief_'
'relay_'
'relates_'
'reject_'
'reinvented_'
'reinvent_'
'registration_'
'register_'
'regions_'
'regenerate_'
'refused_'
'refuse_'
'refugee_'
'reforms_'
'reformation_'
'reducing_'
'reduces_'
'redevelopment_'
'redesigning_'
'recycling_'
'recovery_'
'recover_'
'reconstruct_'
'reconciliation_'
'recommended_'
'recognizes_'
'receptors_'
'receptor_'
'reception_'
'receiving_'
'recall_'
'rebel_'
'reasoning_'
'reasonable_'
'rear_'
'realizing_'
'realities_'
'realignment_'
'readily_'
'reader_'
'reached_'
'ravaged_'
'ratios_'
'rationally_'
'rated_'
'raped_'
'rape_'
'ransom_'
'ranked_'
'raining_'
'railways_'
'rage_'
'raft_'
'radius_'
'radar_'
'quẳng_'
'quầy_'
'quạt_'
'quáng_'
'quyện_'
'quoted_'
'quest_'
'quantities_'
'quads_'
'pyramid_'
'puzzles_'
'pursuing_'
'purges_'
'puppeteer_'
'punk_'
'pumps_'
'pulses_'
'pulsed_'
'publisher_'
'pshoo_'
'prôtêin_'
'prôtein_'
'provocative_'
'provinces_'
'protective_'
'protecting_'
'proposal_'
'proportionate_'
'propellant_'
'promoting_'
'projections_'
'projectile_'
'projected_'
'prohibitive_'
'profitable_'
'prisoner_'
'prioritize_'
'printing_'
'primary_'
'priest_'
'prices_'
'preventing_'
'prevented_'
'pretzels_'
'pressing_'
'presidential_'
'presenting_'
'preparing_'
'preparation_'
'premise_'
'prematurely_'
'prehistoric_'
'preferred_'
'preference_'
'predictive_'
'predictable_'
'predator_'
'practices_'
'pour_'
'pouch_'
'potent_'
'pot_'
'posture_'
'postcard_'
'postage_'
'possibilities_'
'posed_'
'pose_'
'portion_'
'port_'
'pornography_'
'populations_'
'pops_'
'popping_'
'poorly_'
'pools_'
'polymers_'
'polymer_'
'politically_'
'policing_'
'policies_'
'poker_'
'poke_'
'poetic_'
'pneumonia_'
'pluralistic_'
'plumes_'
'plugging_'
'plotted_'
'plot_'
'plentiful_'
'pleased_'
'playful_'
'playbook_'
'plate_'
'plaques_'
'plaque_'
'planners_'
'planned_'
'plankton_'
'planetary_'
'pivotal_'
'pity_'
'pinpoint_'
'pills_'
'pigeons_'
'pig_'
'pie_'
'picking_'
'phớt_'
'phỉ_'
'phế_'
'phăng_'
'phông_'
'physically_'
'photosynthesis_'
'photojournalist_'
'photographer_'
'phonemes_'
'phiện_'
'philosophical_'
'philosophers_'
'phen_'
'pharmaceuticals_'
'pharmaceutical_'
'petals_'
'pesticides_'
'persuading_'
'persisted_'
'perseverance_'
'perception_'
'pepper_'
'pentagon_'
'pediatrician_'
'paycheck_'
'patron_'
'pathways_'
'pathology_'
'pathogenic_'
'pasted_'
'passive_'
'partly_'
'particle_'
'participating_'
'partial_'
'parking_'
'paraphrase_'
'paralysis_'
'paragraph_'
'paradise_'
'parachute_'
'parable_'
'panic_'
'panels_'
'panel_'
'pan_'
'palm_'
'pajamas_'
'paintings_'
'painkillers_'
'packed_'
'pH_'
'oát_'
'oxit_'
'owe_'
'overstatement_'
'overseas_'
'overeating_'
'overarching_'
'outweighs_'
'outset_'
'outrage_'
'outliers_'
'outer_'
'orphaned_'
'originally_'
'organized_'
'organizational_'
'orbits_'
'oratory_'
'options_'
'optimistic_'
'optics_'
'opium_'
'operations_'
'operated_'
'openly_'
'oldest_'
'ol_'
'ok_'
'offensive_'
'occurring_'
'occupants_'
'occasional_'
'obtained_'
'obstacles_'
'observations_'
'obey_'
'obese_'
'nớt_'
'nọc_'
'nỉ_'
'nể_'
'nến_'
'nặc_'
'nắp_'
'nạt_'
'nương_'
'năn_'
'nòng_'
'né_'
'náu_'
'náo_'
'nuối_'
'nutritional_'
'nursery_'
'numerous_'
'numb_'
'nuances_'
'novelty_'
'notation_'
'northern_'
'norms_'
'norm_'
'nor_'
'noon_'
'noninvasively_'
'noninvasive_'
'nomination_'
'nitrogen_'
'nitric_'
'ninth_'
'nicer_'
'nhốt_'
'nhọn_'
'nhện_'
'nhẽ_'
'nhấc_'
'nhạnh_'
'nhượng_'
'nhăn_'
'nhét_'
'nhã_'
'nháy_'
'nhánh_'
'nhám_'
'nhào_'
'nhai_'
'nha_'
'ngửi_'
'ngừơi_'
'ngục_'
'ngời_'
'ngộ_'
'ngọc_'
'ngặt_'
'ngầu_'
'ngó_'
'ngòi_'
'ngâm_'
'nguội_'
'nguyền_'
'ngoạn_'
'newspapers_'
'neutralize_'
'networking_'
'nerd_'
'neighborhoods_'
'negotiating_'
'nations_'
'narrower_'
'napkin_'
'nang_'
'nan_'
'nada_'
'mớm_'
'mọt_'
'mỉm_'
'mỉa_'
'mỉ_'
'mẻ_'
'mậu_'
'mấu_'
'mảy_'
'múc_'
'mùn_'
'mênh_'
'mè_'
'mánh_'
'má_'
'mào_'
'myth_'
'mystical_'
'mysterious_'
'muội_'
'mutually_'
'mutations_'
'musician_'
'mushroom_'
'multiply_'
'mouths_'
'mouflon_'
'motorcycle_'
'motives_'
'motivating_'
'motivates_'
'motion_'
'mothers2mothers_'
'mosques_'
'moons_'
'mood_'
'monthly_'
'monocultures_'
'monks_'
'monk_'
'monitoring_'
'moms_'
'momentous_'
'molded_'
'mold_'
'moisture_'
'modules_'
'modeling_'
'mock_'
'miệt_'
'mixed_'
'mitochondrial_'
'mite_'
'misery_'
'mirrors_'
'miracles_'
'minor_'
'ministry_'
'minimum_'
'minimize_'
'mines_'
'minerals_'
'mimicked_'
'millennium_'
'millennia_'
'migration_'
'microseconds_'
'microscopes_'
'microchip_'
'microbial_'
'microbes_'
'methane_'
'metaphors_'
'metabolism_'
'mess_'
'merging_'
'merge_'
'menu_'
'mentor_'
'memorial_'
'memo_'
'memes_'
'melting_'
'meltdown_'
'meets_'
'meditation_'
'medicines_'
'mediate_'
'measures_'
'meanings_'
'meaningful_'
'meadow_'
'mayor_'
'mature_'
'maths_'
'matches_'
'mastery_'
'massively_'
'masons_'
'marks_'
'marked_'
'mark_'
'margins_'
'margin_'
'march_'
'maratông_'
'marathons_'
'maps_'
'mapped_'
'mao_'
'manufacture_'
'manifestation_'
'managing_'
'manages_'
'magnitude_'
'mafia_'
'macro_'
'lứa_'
'lội_'
'lồi_'
'lố_'
'lọt_'
'lọi_'
'lề_'
'lậu_'
'lẫm_'
'lẩn_'
'lầy_'
'lấn_'
'lạy_'
'lượt_'
'lười_'
'lư_'
'lăng_'
'lăm_'
'lênh_'
'lê_'
'lén_'
'lãi_'
'lure_'
'lungs_'
'lumber_'
'luckily_'
'lu_'
'loves_'
'lovers_'
'losses_'
'loser_'
'loops_'
'longtime_'
'longest_'
'loneliness_'
'lon_'
'logistics_'
'logical_'
'log_'
'locations_'
'localized_'
'lobby_'
'loanh_'
'loan_'
'loaded_'
'loa_'
'liêu_'
'lithium_'
'lists_'
'listing_'
'listed_'
'lion_'
'links_'
'linked_'
'lingering_'
'limiting_'
'limitation_'
'lightning_'
'lifted_'
'lifelong_'
'lettuce_'
'lethal_'
'lend_'
'leisure_'
'legacy_'
'lectures_'
'lecture_'
'leap_'
'lean_'
'leaked_'
'league_'
'layman_'
'layers_'
'lawns_'
'launching_'
'laughing_'
'latter_'
'lately_'
'lanh_'
'lanes_'
'landing_'
'lag_'
'ladder_'
'laboratories_'
'labels_'
'labeled_'
'kỵ_'
'kẹp_'
'kìm_'
'kyu_'
'knocked_'
'kiềm_'
'kiêu_'
'kitchen_'
'kings_'
'kindly_'
'kilômét_'
'ki_'
'khuếch_'
'khuất_'
'khua_'
'khoáng_'
'khoác_'
'khiêng_'
'khinh_'
'khen_'
'kg_'
'keystroke_'
'keys_'
'kerosene_'
'keo_'
'justify_'
'jury_'
'junkies_'
'junior_'
'jungle_'
'jumped_'
'juice_'
'judgments_'
'judgment_'
'judges_'
'journalists_'
'joint_'
'jet_'
'jargon_'
'irrespective_'
'involving_'
'involvement_'
'invitations_'
'investors_'
'investigation_'
'investigate_'
'inversion_'
'invasive_'
'intuitively_'
'intuitive_'
'introducing_'
'intricate_'
'intolerance_'
'intimate_'
'interviewed_'
'intertwined_'
'interruptions_'
'interrogation_'
'interpretation_'
'interior_'
'interfere_'
'interconnected_'
'intensive_'
'intelligent_'
'insulin_'
'insulation_'
'instrument_'
'institute_'
'instill_'
'installing_'
'insecure_'
'insect_'
'inputs_'
'innovate_'
'injuries_'
'injection_'
'injecting_'
'initially_'
'inherent_'
'ingenuity_'
'inform_'
'infinity_'
'infinitely_'
'infiltrated_'
'infection_'
'inevitably_'
'inevitable_'
'inertia_'
'industrialized_'
'induced_'
'indoor_'
'individually_'
'indications_'
'indication_'
'indicated_'
'incubator_'
'incremental_'
'increasingly_'
'increases_'
'inclusion_'
'includes_'
'incidentally_'
'inappropriate_'
'impulse_'
'improvisation_'
'improves_'
'impressive_'
'impression_'
'implant_'
'impacted_'
'immunized_'
'immunization_'
'immortality_'
'immortal_'
'immersive_'
'imagines_'
'imaginary_'
'imaginable_'
'illumination_'
'illuminated_'
'illiterate_'
'ignoring_'
'idle_'
'identification_'
'iPods_'
'hốt_'
'hốc_'
'hằn_'
'hơp_'
'hét_'
'héo_'
'hé_'
'hãnh_'
'hán_'
'hypoxic_'
'hypothesis_'
'hypotheses_'
'huých_'
'hurricane_'
'hunter_'
'hunt_'
'hungry_'
'hunchback_'
'hunch_'
'humpback_'
'humiliation_'
'humbly_'
'humanities_'
'humanitarian_'
'humanists_'
'hugely_'
'hoạn_'
'households_'
'hottest_'
'hotter_'
'hotel_'
'host_'
'horror_'
'horn_'
'hormones_'
'hopeless_'
'hop_'
'hooked_'
'honor_'
'honesty_'
'hon_'
'hometown_'
'homegrown_'
'holy_'
'holiest_'
'holds_'
'holder_'
'hoi_'
'hockey_'
'hobbyists_'
'hiền_'
'hive_'
'hitting_'
'histories_'
'hired_'
'highway_'
'hierarchical_'
'hide_'
'hiatus_'
'heterosexuals_'
'herd_'
'helpfully_'
'helicopter_'
'heli_'
'hectares_'
'heaven_'
'heartbeat_'
'headway_'
'headline_'
'heading_'
'hats_'
'haters_'
'hassle_'
'harvesting_'
'hardware_'
'hardly_'
'hardened_'
'harbor_'
'hanger_'
'handsome_'
'handle_'
'hallway_'
'halls_'
'hah_'
'habit_'
'ha_'
'h_'
'gục_'
'gợn_'
'gốm_'
'gặt_'
'gậy_'
'gật_'
'gạo_'
'găng_'
'gôn_'
'gãy_'
'gân_'
'gypsum_'
'gymnasium_'
'gut_'
'guru_'
'gunshot_'
'guns_'
'gum_'
'guides_'
'guessing_'
'guard_'
'guarantee_'
'gu_'
'grows_'
'gross_'
'grinding_'
'grief_'
'grids_'
'gravity_'
'grassroots_'
'grass_'
'graphics_'
'grandmothers_'
'granddaughter_'
'grammatically_'
'grammar_'
'gradually_'
'graders_'
'gracefully_'
'grace_'
'gods_'
'glue_'
'glow_'
'glorious_'
'globalizers_'
'gliders_'
'glide_'
'glial_'
'glaciers_'
'giục_'
'giở_'
'giềng_'
'giằng_'
'giũ_'
'giáp_'
'giáng_'
'giàn_'
'girly_'
'gifted_'
'gic_'
'gestures_'
'geologists_'
'geography_'
'geographically_'
'geoengineering_'
'genuine_'
'gentleman_'
'gentle_'
'generic_'
'generator_'
'geeky_'
'gear_'
'gatherer_'
'gassing_'
'gallon_'
'galleries_'
'gadget_'
'ga_'
'g_'
'fuzzy_'
'fury_'
'funky_'
'fungus_'
'funeral_'
'funding_'
'funders_'
'fund_'
'ft_'
'frozen_'
'frivolous_'
'frightening_'
'fright_'
'frequent_'
'frequency_'
'freak_'
'fractal_'
'fours_'
'fortunate_'
'formulate_'
'fork_'
'forgotten_'
'forgiveness_'
'forgive_'
'forbid_'
'foragers_'
'footsteps_'
'footprint_'
'football_'
'footage_'
'fool_'
'folks_'
'foil_'
'focal_'
'fluke_'
'fluids_'
'flows_'
'flourishing_'
'flourish_'
'flock_'
'flick_'
'flesh_'
'fisheries_'
'firmly_'
'fires_'
'firemen_'
'finishes_'
'fingertips_'
'finger_'
'filming_'
'filling_'
'fighters_'
'fifteen_'
'fetal_'
'festival_'
'fertilizers_'
'feminist_'
'feminism_'
'feminine_'
'females_'
'fellowship_'
'feeding_'
'federally_'
'featuring_'
'faulty_'
'fats_'
'fashioned_'
'farms_'
'farming_'
'farmer_'
'fanatical_'
'faint_'
'failures_'
'faculty_'
'factories_'
'facets_'
'fable_'
'extroverts_'
'extremist_'
'extracting_'
'exterior_'
'extend_'
'exquisite_'
'exposé_'
'exposure_'
'exponential_'
'explosions_'
'explores_'
'explorations_'
'explicitly_'
'expertise_'
'experimentation_'
'experimental_'
'expense_'
'expedition_'
'expectation_'
'expand_'
'exhilarating_'
'execute_'
'excitement_'
'excitedly_'
'exchanging_'
'exceeds_'
'examined_'
'exam_'
'exaggerated_'
'ex_'
'evolve_'
'evocative_'
'evaporates_'
'ethical_'
'estimating_'
'estimated_'
'essentials_'
'equations_'
'equation_'
'enzyme_'
'environmentally_'
'envelope_'
'entropy_'
'entrepreneurship_'
'entranced_'
'entertaining_'
'entertained_'
'enormously_'
'enlisted_'
'enjoyment_'
'enjoying_'
'enjoyable_'
'engaging_'
'enforcing_'
'energetic_'
'enemies_'
'eneb_'
'endure_'
'endeavor_'
'encourages_'
'encounters_'
'encountered_'
'encode_'
'enabling_'
'emptied_'
'empowering_'
'empowered_'
'employed_'
'employ_'
'emphasize_'
'emitted_'
'emergent_'
'embryos_'
'embodies_'
'emails_'
'elongate_'
'eliminating_'
'elevate_'
'elementary_'
'elegant_'
'electronic_'
'elders_'
'elder_'
'elbow_'
'el_'
'eh_'
'ego_'
'effortlessly_'
'ecosystem_'
'ecological_'
'eaten_'
'eastern_'
'eagles_'
'dột_'
'dội_'
'dấy_'
'dại_'
'dì_'
'dép_'
'duyên_'
'duplicate_'
'dump_'
'due_'
'drywall_'
'drunk_'
'drudgery_'
'drowning_'
'dropout_'
'drones_'
'drives_'
'dresses_'
'dreamed_'
'draws_'
'dozen_'
'downtown_'
'dough_'
'doubled_'
'doorstep_'
'doors_'
'donated_'
'donate_'
'dominance_'
'dolphins_'
'dodo_'
'documents_'
'documentary_'
'diễu_'
'divisions_'
'diverge_'
'disturbed_'
'distraction_'
'distract_'
'dissonance_'
'dispute_'
'disposable_'
'displays_'
'displayed_'
'displacement_'
'displaced_'
'disparity_'
'disk_'
'dishonest_'
'dishes_'
'discrimination_'
'discovering_'
'discoveries_'
'discouraging_'
'disconnect_'
'disc_'
'disappointed_'
'disappeared_'
'dirty_'
'directors_'
'directed_'
'dioxide_'
'dinosaur_'
'dimming_'
'dilemmas_'
'digitally_'
'digging_'
'difficulty_'
'differential_'
'didactic_'
'dictatorship_'
'dictators_'
'dictator_'
'diary_'
'dial_'
'diagnosis_'
'diagnosed_'
'devotion_'
'develops_'
'developer_'
'determination_'
'detection_'
'detected_'
'destined_'
'desktop_'
'desirable_'
'designers_'
'describes_'
'derived_'
'depths_'
'deploy_'
'depletion_'
'depended_'
'deny_'
'democratized_'
'demo_'
'demise_'
'delivering_'
'delight_'
'delicacy_'
'definitely_'
'defining_'
'defines_'
'defender_'
'defend_'
'dedication_'
'decreasing_'
'decoration_'
'declining_'
'declared_'
'deck_'
'deciding_'
'deceptive_'
'debilitating_'
'debated_'
'dear_'
'deadly_'
'dated_'
'dare_'
'dancer_'
'cửu_'
'củi_'
'củ_'
'cợt_'
'cằn_'
'cảng_'
'cược_'
'cưỡi_'
'cưng_'
'cúng_'
'cúc_'
'côi_'
'còng_'
'cán_'
'cácbon_'
'cày_'
'cào_'
'cành_'
'cynical_'
'cycles_'
'cyber_'
'cuả_'
'cute_'
'curved_'
'cure_'
'cups_'
'cuneiform_'
'cumulative_'
'cue_'
'crows_'
'crosses_'
'crop_'
'crony_'
'critique_'
'criticism_'
'cried_'
'cricket_'
'crews_'
'creepy_'
'creator_'
'cream_'
'crashing_'
'crafted_'
'cows_'
'cousins_'
'cousin_'
'court_'
'courage_'
'couples_'
'countless_'
'counted_'
'counselor_'
'council_'
'couches_'
'costing_'
'corridors_'
'correlation_'
'correlated_'
'correctness_'
'cords_'
'copying_'
'cops_'
'cope_'
'cooperative_'
'cooled_'
'convicted_'
'convict_'
'convert_'
'conversion_'
'convenient_'
'controversy_'
'controls_'
'continually_'
'contingent_'
'continents_'
'contentious_'
'contemplating_'
'containers_'
'consulting_'
'consultants_'
'constructions_'
'construct_'
'conspiracy_'
'consolation_'
'consistently_'
'consequence_'
'congestion_'
'conducted_'
'conceptually_'
'concentrated_'
'conceive_'
'compromises_'
'comprising_'
'comprised_'
'composites_'
'composite_'
'composer_'
'complained_'
'compilations_'
'competitors_'
'competence_'
'compete_'
'comparisons_'
'compares_'
'companions_'
'companion_'
'communicating_'
'commonly_'
'commit_'
'commander_'
'command_'
'combinations_'
'combination_'
'colorful_'
'colliding_'
'collector_'
'collection_'
'collared_'
'collapsing_'
'collapses_'
'collaborators_'
'collaborative_'
'collaborating_'
'collaborated_'
'coined_'
'coil_'
'cognitively_'
'cogito_'
'coding_'
'cocktail_'
'coating_'
'clusters_'
'cluster_'
'clues_'
'clue_'
'closet_'
'clocks_'
'clinics_'
'climates_'
'cliffs_'
'client_'
'clicks_'
'clicker_'
'classrooms_'
'classification_'
'clarity_'
'claiming_'
'claimed_'
'civilized_'
'civic_'
'circus_'
'circular_'
'circuit_'
'chớp_'
'chốc_'
'chọi_'
'chằng_'
'chầm_'
'chảo_'
'chải_'
'chóp_'
'chéo_'
'chuồng_'
'chuồn_'
'chuối_'
'chuyền_'
'churn_'
'chunky_'
'chunk_'
'chui_'
'chromosomes_'
'chop_'
'cholesterol_'
'chocolates_'
'chiên_'
'chips_'
'chinh_'
'chilling_'
'chicks_'
'chemotherapy_'
'chemists_'
'cheesesteak_'
'checking_'
'checked_'
'charts_'
'charming_'
'charity_'
'chariot_'
'charging_'
'charges_'
'charged_'
'chapter_'
'chang_'
'champion_'
'challenged_'
'chairs_'
'certainty_'
'ceremony_'
'cent_'
'celebrations_'
'cease_'
'caves_'
'cattle_'
'cats_'
'cathedrals_'
'category_'
'categories_'
'catastrophic_'
'cast_'
'cascades_'
'cartoonists_'
'carriers_'
'carnivorous_'
'caregivers_'
'cardiac_'
'cardboard_'
'carbs_'
'carbonate_'
'canopy_'
'cane_'
'candidates_'
'cancel_'
'calories_'
'calculations_'
'calculation_'
'calculating_'
'cabinet_'
'bự_'
'bốt_'
'bỏng_'
'bịch_'
'bệ_'
'bế_'
'bầy_'
'bần_'
'bướm_'
'bùn_'
'bô_'
'bì_'
'bén_'
'bã_'
'bàng_'
'byte_'
'buyer_'
'butt_'
'businesspeople_'
'burner_'
'bulk_'
'bulbs_'
'buggy_'
'bucardo_'
'bubbling_'
'bubbles_'
'bu_'
'brute_'
'brutally_'
'bruises_'
'broccoli_'
'broader_'
'broad_'
'brink_'
'brightness_'
'bridges_'
'bricks_'
'bribe_'
'bread_'
'brainwaves_'
'bragging_'
'bounce_'
'bother_'
'boss_'
'boost_'
'boom_'
'bombing_'
'bombers_'
'bodied_'
'boats_'
'boarding_'
'blurry_'
'blurred_'
'blunter_'
'blues_'
'bloop_'
'blockbuster_'
'blob_'
'blizzard_'
'bliss_'
'blink_'
'bleeding_'
'blame_'
'birthplace_'
'birthday_'
'biotechnology_'
'biologist_'
'biodiversity_'
'bill_'
'bicycle_'
'beverage_'
'bending_'
'belonging_'
'belonged_'
'belong_'
'belly_'
'believer_'
'behold_'
'behaving_'
'behaves_'
'beep_'
'beehive_'
'bedrooms_'
'beavers_'
'beats_'
'bears_'
'beams_'
'battling_'
'battalion_'
'basics_'
'bases_'
'baseline_'
'barrier_'
'barge_'
'bare_'
'banned_'
'banks_'
'banking_'
'bandwidth_'
'banana_'
'balls_'
'ballistics_'
'bald_'
'bacon_'
'backstage_'
'backs_'
'b_'
'axe_'
'awkwardness_'
'awesome_'
'awaken_'
'awake_'
'availability_'
'autumn_'
'autopilot_'
'automotive_'
'autistic_'
'authors_'
'authoritarian_'
'authenticity_'
'audio_'
'audiences_'
'attributable_'
'attitudes_'
'attenuate_'
'attended_'
'attend_'
'attempts_'
'attempted_'
'attacker_'
'atrocities_'
'athleticism_'
'astounding_'
'astonishingly_'
'assumes_'
'associations_'
'associate_'
'assets_'
'assembled_'
'ass_'
'aspects_'
'ashamed_'
'artifacts_'
'arrow_'
'arriving_'
'arrest_'
'arrays_'
'armies_'
'armed_'
'arithmetic_'
'argues_'
'arena_'
'approval_'
'apprentice_'
'appreciation_'
'appreciate_'
'applies_'
'apples_'
'appetite_'
'appearance_'
'apparently_'
'apologize_'
'aphids_'
'apes_'
'aortic_'
'anticipation_'
'answered_'
'anonymity_'
'anomaly_'
'annualized_'
'annihilated_'
'anise_'
'angels_'
'anecdotes_'
'ancestors_'
'analyzing_'
'analyses_'
'analogy_'
'analogies_'
'amplifying_'
'amplify_'
'ammonia_'
'amino_'
'ambassador_'
'amazed_'
'altogether_'
'alternatives_'
'alternately_'
'altered_'
'alter_'
'alphabet_'
'almonds_'
'alike_'
'alien_'
'algae_'
'airports_'
'airplanes_'
'ain_'
'aims_'
'aimless_'
'aggression_'
'agendas_'
'afterward_'
'affordability_'
'advertise_'
'adventure_'
'advancing_'
'advance_'
'adulthood_'
'ads_'
'adopt_'
'adolescent_'
'admitting_'
'admired_'
'addresses_'
'addressed_'
'adage_'
'actors_'
'activists_'
'activated_'
'acrylic_'
'acromegaly_'
'acre_'
'acquire_'
'acoustical_'
'acids_'
'achievements_'
'achievement_'
'accurately_'
'accountable_'
'accomplished_'
'accepts_'
'accelerometer_'
'acceleration_'
'accelerate_'
'abundant_'
'abs_'
'abortion_'
'Zulu_'
'Zero_'
'Zach_'
'ZK_'
'Yếu_'
'Yemeni_'
'Yellowstone_'
'Yay_'
'Yasheng_'
'Yahoo_'
'Worth_'
'Worldchanging_'
'Witness_'
'Wisconsin_'
'Windows_'
'Wilson_'
'Whitacre_'
'Were_'
'Wells_'
'Was_'
'Walter_'
'Waldo_'
'WHO_'
'Vẽ_'
'Vẫy_'
'Vườn_'
'Voyager_'
'Vodka_'
'Viên_'
'Vishna_'
'Virtual_'
'Vietnamese_'
'Vietnam_'
'Victoria_'
'Vice_'
'Vibrio_'
'Viagra_'
'Venus_'
'Venetian_'
'Vancouver_'
'Van_'
'Vai_'
'Vaclav_'
'Urp_'
'Uranus_'
'Ung_'
'Umar_'
'Ubuntu_'
'USDA_'
'USB_'
'UMBC_'
'Từng_'
'Tức_'
'Tụi_'
'Tội_'
'Tối_'
'Tỉ_'
'Tế_'
'Tập_'
'Tảng_'
'Tạng_'
'Tạm_'
'Tạ_'
'Tượng_'
'Tăng_'
'Tài_'
'Typography_'
'Ty_'
'Tuổi_'
'Tuần_'
'Tuyết_'
'Tuyên_'
'Tutu_'
'Turns_'
'Trực_'
'Trị_'
'Trạm_'
'Trông_'
'Trách_'
'Truyền_'
'Tronchetti_'
'Triều_'
'Transparency_'
'Tranh_'
'Tracy_'
'Tower_'
'Totally_'
'Torosaurus_'
'Top_'
'Tommy_'
'Toby_'
'Tiêu_'
'Titan_'
'Tirana_'
'Tilson_'
'Tibor_'
'Tibbits_'
'Ti_'
'TiVo_'
'Thủ_'
'Thống_'
'Thị_'
'Thầy_'
'Thạc_'
'Thường_'
'Thơ_'
'Thính_'
'Thí_'
'Tháng_'
'Thuyết_'
'Thum_'
'Thu_'
'Throughout_'
'Thirty_'
'Their_'
'Thatcher_'
'Thanksgiving_'
'Texting_'
'Test_'
'Terrafugia_'
'Terkel_'
'Ten_'
'Tempest_'
'Tel_'
'Tech_'
'Teach_'
'Tarja_'
'Talk_'
'Taking_'
'Taiwan_'
'Tai_'
'Tahltan_'
'TVs_'
'TEDsters_'
'TEDMED_'
'TB_'
'Sỹ_'
'Sắp_'
'Sơn_'
'São_'
'Sách_'
'Swaptree_'
'Suzanne_'
'Suy_'
'Suu_'
'Surace_'
'Suppose_'
'Sunitha_'
'Studio_'
'Stories_'
'Stones_'
'Stockholm_'
'Still_'
'Steinberg_'
'Starzl_'
'Starck_'
'Starbucks_'
'Stacey_'
'Square_'
'Spring_'
'Speaking_'
'Spam_'
'Spain_'
'Space_'
'Southeast_'
'Socrates_'
'Snowden_'
'Smil_'
'Slick_'
'Sleepy_'
'Six_'
'Sivers_'
'Sit_'
'Similarly_'
'Silicon_'
'Siemens_'
'Show_'
'Shiv_'
'Shea_'
'Sharmeen_'
'Shapshak_'
'Shanti_'
'Sex_'
'Several_'
'Seven_'
'Seoul_'
'Senator_'
'Selanikio_'
'Secretary_'
'Sebastian_'
'Sean_'
'Scotland_'
'Schwarzschild_'
'Schuiten_'
'Scalia_'
'Save_'
'Saturn_'
'Sarajevo_'
'Santa_'
'Sankofa_'
'Sandor_'
'Same_'
'Samaritan_'
'Sally_'
'Saks_'
'Saki_'
'Sai_'
'Sadly_'
'Saatchi_'
'SAT_'
'Rồng_'
'Rwandan_'
'Russian_'
'Russell_'
'Rushing_'
'Roosevelt_'
'Roger_'
'Rob_'
'Roald_'
'Rives_'
'River_'
'Ritz_'
'Rita_'
'Rift_'
'Rico_'
'Richmond_'
'Rhode_'
'Republican_'
'Renny_'
'Recently_'
'Reach_'
'Rashomon_'
'Ranger_'
'Randy_'
'Random_'
'Randi_'
'Rahm_'
'Ragu_'
'Radio_'
'Radcliffe_'
'RNA_'
'Quả_'
'Quán_'
'Quyển_'
'Quy_'
'Qui_'
'Qalandar_'
'Put_'
'Puerto_'
'Prozac_'
'Provera_'
'Probably_'
'Prison_'
'Prime_'
'Prego_'
'Pratham_'
'Pranav_'
'Pradesh_'
'Powerful_'
'PowerPoint_'
'Pot_'
'Post_'
'Posada_'
'Portugal_'
'Porco_'
'Pool_'
'Politics_'
'Polio_'
'Point_'
'Pogue_'
'Pisani_'
'Pinocchio_'
'Piff_'
'Phục_'
'Phố_'
'Phản_'
'Phân_'
'Photostat_'
'Phiến_'
'Phim_'
'Phillips_'
'Philippines_'
'Phanish_'
'Petri_'
'Petersburg_'
'Peru_'
'Persians_'
'Persepolis_'
'Percent_'
'Pearl_'
'Paulo_'
'Patton_'
'Pat_'
'Pashtun_'
'Parliament_'
'Paradise_'
'Paolo_'
'Palin_'
'Paganini_'
'Pac_'
'PR_'
'PH_'
'PGA_'
'PDAs_'
'Oz_'
'Out_'
'Otto_'
'Organization_'
'Oprah_'
'Oops_'
'Ooh_'
'Omenetto_'
'Olympus_'
'Odysseus_'
'Ockelford_'
'Obaid_'
'OS_'
'O2_'
'Nốt_'
'Nô_'
'Num_'
'Noujaim_'
'Notice_'
'Norway_'
'Northwestern_'
'Norman_'
'Norden_'
'Niềm_'
'Niên_'
'Nintendo_'
'Nina_'
'Niger_'
'Nielsen_'
'Nicolelis_'
'Nicole_'
'Nicholas_'
'Niagara_'
'Nhóm_'
'Nhiên_'
'Nguy_'
'Nghĩa_'
'Nghĩ_'
'Newtonian_'
'Nepal_'
'Nellie_'
'Ndebele_'
'Nant_'
'Nano_'
'Nalini_'
'Nachtwey_'
'Nabokov_'
'NGOs_'
'NGHE_'
'NDD_'
'Mực_'
'Mời_'
'Mối_'
'Mấy_'
'Mô_'
'Màu_'
'Màn_'
'Mysore_'
'Music_'
'Mushroom_'
'Musallam_'
'Muruganantham_'
'Murray_'
'Mua_'
'Motorola_'
'Moreover_'
'Moon_'
'Monterey_'
'Monster_'
'Mons_'
'Monkey_'
'Mong_'
'Mominqimiao_'
'Mom_'
'Mohamed_'
'Mo_'
'Mitchell_'
'Mistry_'
'Missmahl_'
'Mississippi_'
'Mission_'
'Minnesota_'
'Mind_'
'Miliband_'
'Mildred_'
'Midwest_'
'Mickey_'
'Meyerowitz_'
'Mexicans_'
'Metropolitan_'
'Metaphor_'
'Mermaid_'
'Mercury_'
'Men_'
'Meggendorfer_'
'Mediterranean_'
'Medical_'
'Meanwhile_'
'Me_'
'McWhorter_'
'McRae_'
'McKinsey_'
'McKay_'
'McCain_'
'McAfee_'
'Mayo_'
'Matty_'
'Materials_'
'Massachusetts_'
'Marston_'
'Markham_'
'Marilyn_'
'Marianne_'
'Marco_'
'March_'
'Maps_'
'MapQuest_'
'Mao_'
'Mandelbrot_'
'Management_'
'Malcom_'
'Malaysia_'
'Malaleuca_'
'Maine_'
'Mahatma_'
'Mahalakshmi_'
'Magic_'
'Mafundikwa_'
'Macs_'
'Mac_'
'MTT_'
'MP3_'
'MBA_'
'Lớp_'
'Lễ_'
'Lạt_'
'Lí_'
'Lên_'
'Lão_'
'Lynn_'
'Luận_'
'Luôn_'
'Lumpur_'
'Luis_'
'Lucy_'
'Luca_'
'Lt_'
'Lower_'
'Lovegrove_'
'Love_'
'Little_'
'Lithuania_'
'Lisa_'
'Likewise_'
'Libya_'
'Liberty_'
'Liberal_'
'Li_'
'Levin_'
'Lesotho_'
'Leone_'
'Leo_'
'Leave_'
'Lear_'
'Le_'
'Laura_'
'Latinh_'
'Larry_'
'Laptop_'
'Language_'
'Lang_'
'Lai_'
'LOL_'
'LEGO_'
'LDL_'
'Kẻ_'
'Kông_'
'Kyi_'
'Kurds_'
'Kuala_'
'Kramer_'
'Kouros_'
'Korean_'
'Kohn_'
'Kohler_'
'Knopf_'
'Kiểu_'
'Kiểm_'
'Kiến_'
'Kirk_'
'Kinsey_'
'Kiki_'
'Khớp_'
'Khám_'
'Kerry_'
'Kermit_'
'Keith_'
'Keep_'
'Kate_'
'Kaplan_'
'Kansas_'
'Kalam_'
'Kaaba_'
'KIPP_'
'Justin_'
'Jupiter_'
'Julia_'
'Josh_'
'Jose_'
'Jorge_'
'Jordan_'
'Jon_'
'Johnston_'
'Joerg_'
'Jobrani_'
'Jesse_'
'Jennifer_'
'Jehane_'
'Jeff_'
'Jebb_'
'Jeanny_'
'Jazz_'
'Jared_'
'January_'
'Jansen_'
'Janna_'
'Jang_'
'Jain_'
'Jack_'
'JT_'
'JPL_'
'JK_'
'J2_'
'Ixaren_'
'Italian_'
'Islamist_'
'Irắc_'
'Irag_'
'Iowa_'
'Invisible_'
'Infinity_'
'Ines_'
'Indiana_'
'Imperial_'
'Image_'
'Ikea_'
'Idol_'
'Idiots_'
'ISR_'
'IPCC_'
'INCA_'
'IMF_'
'Hỏi_'
'Hẳn_'
'Hậu_'
'Hạt_'
'Hướng_'
'Hát_'
'Hài_'
'Hyderabad_'
'Huntington_'
'Hunter_'
'Hunt_'
'Humans_'
'Huffington_'
'Huang_'
'Hotmail_'
'Horse_'
'Hopkins_'
'Honolulu_'
'Holocaust_'
'Holland_'
'Holiness_'
'Hoen_'
'Hockenberry_'
'Hiển_'
'Hiến_'
'Hitler_'
'Hitchcock_'
'History_'
'Hirshhorn_'
'Himalayas_'
'Hillel_'
'Hillary_'
'Hijri_'
'Herman_'
'Henri_'
'Hence_'
'Heatherwick_'
'Heart_'
'Hawking_'
'Having_'
'Hartman_'
'Hard_'
'Hansen_'
'Hang_'
'Handspring_'
'Han_'
'Hamas_'
'Halonen_'
'Hal_'
'HAL_'
'Gửi_'
'Gọi_'
'Gô_'
'Góc_'
'Gupta_'
'Gs_'
'Grégoire_'
'Griffith_'
'Greenville_'
'Grant_'
'Grand_'
'Gowanus_'
'Gourley_'
'Goldstein_'
'Goldilocks_'
'Godiva_'
'Gleeson_'
'Giữ_'
'Giới_'
'Giả_'
'Giúp_'
'Giám_'
'Giác_'
'Girls_'
'Gilbert_'
'Gershwin_'
'Gerlach_'
'Georgetown_'
'Geographic_'
'Genspace_'
'Genome_'
'Geert_'
'Geary_'
'Gaza_'
'Garten_'
'Garone_'
'Garden_'
'Gapminder_'
'Ganđi_'
'Gandhian_'
'Galileo_'
'GW_'
'Friedman_'
'Freud_'
'Freeland_'
'Free_'
'Frederick_'
'François_'
'Frankly_'
'France_'
'Fourth_'
'Found_'
'Forty_'
'Fort_'
'Force_'
'Flynn_'
'Flip_'
'Fitzgerald_'
'Fish_'
'Fischer_'
'Fiorenzo_'
'Fifth_'
'Fields_'
'Festo_'
'Feki_'
'Fear_'
'Farmville_'
'Fargo_'
'Far_'
'Falls_'
'Faiza_'
'Fair_'
'FBI_'
'Explorer_'
'Evan_'
'Eva_'
'Europeans_'
'Euro_'
'Etete_'
'Estonia_'
'Esther_'
'Especially_'
'Erez_'
'End_'
'Encyclopedia_'
'Enceladus_'
'Emmanuel_'
'Emma_'
'Emily_'
'Emerson_'
'Emanuel_'
'Elyn_'
'Electrolux_'
'Elastic_'
'Either_'
'Eighty_'
'Eiffel_'
'Eglantyne_'
'Effectively_'
'Edith_'
'Edi_'
'Edge_'
'Eddy_'
'Ecuador_'
'EcoRock_'
'ED_'
'Dầu_'
'Dưới_'
'Dòng_'
'Dây_'
'Dyson_'
'Dylan_'
'Durga_'
'Duolingo_'
'Dunbar_'
'Duflo_'
'DryBath_'
'Dream_'
'Dracorex_'
'Douglas_'
'Donna_'
'Doing_'
'Doctors_'
'Diễn_'
'Discovery_'
'Dill_'
'Diffee_'
'Diego_'
'Didn_'
'Diane_'
'Desmond_'
'Designing_'
'Der_'
'Depp_'
'Denmark_'
'Democrat_'
'Delhi_'
'Debora_'
'Deb_'
'Dean_'
'Davis_'
'Dartmouth_'
'Dallas_'
'Dakota_'
'DVDs_'
'DRC_'
'DEPTHX_'
'Cựu_'
'Cửa_'
'Cử_'
'Cục_'
'Cống_'
'Cố_'
'Cát_'
'Cuốn_'
'Cutkosky_'
'Curious_'
'Culture_'
'Cultural_'
'Critic_'
'Creative_'
'Cranbrook_'
'Courtine_'
'Copper_'
'Cooperman_'
'Cooper_'
'Conventional_'
'Consider_'
'Connecticut_'
'Computers_'
'Completely_'
'Commons_'
'Commission_'
'Commandments_'
'Collider_'
'Coimbatore_'
'Cohen_'
'Club_'
'Clay_'
'Clarke_'
'Civil_'
'Chứng_'
'Chứ_'
'Chờ_'
'Chả_'
'Chín_'
'Churchill_'
'Christchurch_'
'Christakis_'
'Choir_'
'Chinoy_'
'Chatrou_'
'Charlie_'
'Character_'
'Channel_'
'Champs_'
'Chair_'
'Case_'
'Cartaya_'
'Carolyn_'
'Caroline_'
'Carol_'
'Carl_'
'Carbon_'
'Captain_'
'Caps_'
'Capetown_'
'Canyons_'
'Canyon_'
'Campuchia_'
'Campaign_'
'Camp_'
'Caltech_'
'Calne_'
'Caledonian_'
'Cairo_'
'Cage_'
'CHAT_'
'CH4_'
'CD_'
'CAO_'
'Bồ_'
'Bỉ_'
'Bệnh_'
'Băng_'
'Bóng_'
'Báo_'
'Buy_'
'Business_'
'Burundi_'
'Burma_'
'Burkina_'
'Bundi_'
'Buildings_'
'Buffett_'
'Buddha_'
'Brothers_'
'Brother_'
'Britannica_'
'Bring_'
'Brené_'
'Braxin_'
'Bragg_'
'Brad_'
'Bowl_'
'Bouba_'
'Both_'
'Borges_'
'Borane_'
'Books_'
'Bonnie_'
'Bolte_'
'Bolivia_'
'Boeing_'
'Bobo_'
'Blue_'
'Blank_'
'Blair_'
'Black_'
'Biểu_'
'Biển_'
'Bitu_'
'Birds_'
'Bible_'
'Bhutto_'
'Bhabha_'
'Beverly_'
'Bernoulli_'
'Berkley_'
'Benoit_'
'Bennett_'
'Benazir_'
'Belgium_'
'Being_'
'Beginning_'
'Beethoven_'
'Beautiful_'
'Basit_'
'Barón_'
'Barclays_'
'Baltimore_'
'Ballbot_'
'Bahubali_'
'Bacteria_'
'Bacha_'
'Bach_'
'Babble_'
'Babbage_'
'Baba_'
'BM_'
'BASE_'
'Aviv_'
'Avelile_'
'Autonomy_'
'Austen_'
'Auschwitz_'
'Aung_'
'Atlantic_'
'Atkins_'
'Athens_'
'Association_'
'Ask_'
'Ashanti_'
'Arvind_'
'Arunachalam_'
'Arts_'
'Armstrong_'
'Arkansas_'
'Aristotelian_'
'Ariely_'
'Ariel_'
'Arby_'
'Aquila_'
'Anything_'
'Anyone_'
'Anybody_'
'Any_'
'Anne_'
'Annan_'
'Anna_'
'Android_'
'Andes_'
'Anatotitan_'
'Anas_'
'Amsterdam_'
'Americas_'
'Ambassador_'
'Although_'
'Allison_'
'Alisa_'
'Ali_'
'Alex_'
'Alessi_'
'Alessandro_'
'Alberta_'
'Albert_'
'Albania_'
'Alain_'
'Air_'
'Aimee_'
'Aid_'
'Ahmed_'
'Afrikaans_'
'Africans_'
'Afganistan_'
'Adriatic_'
'Adams_'
'Acquisti_'
'Ace_'
'Abu_'
'Abdul_'
'ATM_'
'ARN_'
'ALS_'
'; — _'
'; @ _'
'; ? _'
'; ? &_'
'97_'
'92_'
'864_'
'84k_'
'80s_'
'79_'
'78_'
'77_'
'747_'
'73_'
'63_'
'59_'
'55_'
'51_'
'4Shbab_'
'410_'
'3rd_'
'3G_'
'38_'
'34_'
'3000_'
'24h_'
'244_'
'230_'
'2020_'
'1997_'
'1996_'
'1995_'
'1994_'
'1993_'
'1991_'
'1985_'
'1984_'
'1982_'
'1978_'
'1976_'
'1975_'
'1967_'
'1963_'
'1960s_'
'1949_'
'1945_'
'1940_'
'1929_'
'1926_'
'1918_'
'1903_'
'1800s_'
'17th_'
'175_'
'15th_'
'13th_'
'10000_'
'05_'
'. -- _'
'-- &_'
' … _'
' — — _'
' . ?_'
' , ... _'
' , , _'
' * _'
' ! ! !_'
'ỳ_'
'ự_'
'ừmmm_'
'ừm_'
'Ừm_'
'ủ_'
'Ủng_'
'ỡ_'
'ởi_'
'ờ_'
'ớt_'
'ới_'
'ộc_'
'Ổn_'
'ốp_'
'ối_'
'Ốm_'
'Ối_'
'ịch_'
'ến_'
'Ẻo_'
'ẵm_'
'ắt_'
'ắng_'
'ập_'
'Ẩn_'
'ầm_'
'Ầ_'
'ảm_'
'Ạnh_'
'̣_'
'̣ _'
'ưự_'
'ươi_'
'Ương_'
'ĩ_'
'đựơc_'
'đốn_'
'đốm_'
'đễnh_'
'đễ_'
'đế_'
'đẽo_'
'đắc_'
'đẫ_'
'đần_'
'đấng_'
'đượng_'
'đượcđiều_'
'đười_'
'đước_'
'đơ_'
'đăc_'
'đít_'
'đênh_'
'đáu_'
'đày_'
'đuợc_'
'đuốc_'
'đung_'
'đu_'
'đso_'
'đoạ_'
'điểu_'
'điếu_'
'điếc_'
'điôxít_'
'đay_'
'Đứng_'
'Đủ_'
'Đột_'
'Đội_'
'Đốc_'
'Đều_'
'Đẹp_'
'Đặc_'
'Đậu_'
'Đảo_'
'Đù_'
'Đón_'
'Đói_'
'Đích_'
'Đâu_'
'Đánh_'
'Đám_'
'Đá_'
'Đà_'
'Đo_'
'Đen_'
'Đay_'
'Đau_'
'ĐTDĐ_'
'ĐH_'
'Ăng_'
'ôi_'
'ôc_'
'ê_'
'én_'
'ây_'
'â_'
'áy_'
'át_'
'á_'
'àoo_'
'ào_'
'Ôtô_'
'Ôliu_'
'Ô_'
'Ê_'
'Élysées_'
'Áo_'
'Ác_'
'½_'
'zooplankton_'
'zinc_'
'zigzag_'
'zeros_'
'zeroes_'
'zap_'
'yểm_'
'yến_'
'yêm_'
'yuck_'
'youngsters_'
'yoga_'
'yields_'
'yep_'
'yellowfin_'
'yearnings_'
'yearning_'
'yearly_'
'yawning_'
'yaw_'
'yarmulke_'
'yaourt_'
'yaks_'
'yahoo_'
'yacht_'
'xữ_'
'xở_'
'xới_'
'xỉn_'
'xỉa_'
'xết_'
'xế_'
'xắp_'
'xấp_'
'xản_'
'xạo_'
'xúm_'
'xúi_'
'xôn_'
'xôm_'
'xót_'
'xóng_'
'xóc_'
'xì_'
'xê_'
'xéo_'
'xén_'
'xà_'
'xuôi_'
'xuyến_'
'xua_'
'xtrôm_'
'xtrom_'
'xoè_'
'xoáy_'
'xoài_'
'xoe_'
'xo_'
'xiết_'
'xiếc_'
'xenophobic_'
'xelô_'
'xao_'
'x_'
'x5_'
'www_'
'wuhahaha_'
'wrongs_'
'wrongly_'
'wrongheaded_'
'writes_'
'wring_'
'wretched_'
'wrestle_'
'wrecks_'
'wreck_'
'wrapped_'
'wove_'
'wounds_'
'worthy_'
'worthless_'
'worryingly_'
'worrisome_'
'worms_'
'workshops_'
'workshop_'
'workouts_'
'workload_'
'workbench_'
'woodblock_'
'wonderfully_'
'womb_'
'womanhood_'
'woke_'
'wok_'
'wits_'
'witnessed_'
'witness_'
'withstands_'
'withdrew_'
'withdrawing_'
'wishes_'
'wiring_'
'wireframe_'
'wiping_'
'winners_'
'wingspan_'
'windshield_'
'winds_'
'willingly_'
'wifi_'
'wield_'
'widow_'
'widespread_'
'wi_'
'wholeness_'
'whistles_'
'whistled_'
'whisper_'
'whirlpool_'
'whirl_'
'wherein_'
'wheeled_'
'wheelchair_'
'wept_'
'wells_'
'welder_'
'welcomed_'
'weights_'
'weighing_'
'weigh_'
'weekly_'
'weekends_'
'weekday_'
'weeds_'
'wed_'
'webs_'
'webbing_'
'weaves_'
'weave_'
'wearisome_'
'weaklings_'
'weaker_'
'weakened_'
'wayward_'
'waylaid_'
'wax_'
'wavelengths_'
'watt_'
'waterslide_'
'wasting_'
'wasted_'
'washed_'
'washboard_'
'warts_'
'warped_'
'warning_'
'warmth_'
'warmer_'
'wander_'
'walled_'
'wallboard_'
'walkshed_'
'walkers_'
'walkability_'
'wakes_'
'wagons_'
'waging_'
'wage_'
'vựng_'
'vụi_'
'vợt_'
'vồng_'
'vọc_'
'vẵn_'
'vắt_'
'vắn_'
'vầy_'
'vơi_'
'vơ_'
'vũng_'
'văng_'
'vút_'
'vói_'
'vò_'
'vênh_'
'vên_'
'vét_'
'vã_'
'vát_'
'váng_'
'vá_'
'vày_'
'vv_'
'vulnerabilities_'
'vu_'
'vows_'
'vowed_'
'voluntary_'
'volcano_'
'volatile_'
'vodka_'
'vocalizing_'
'vocalizations_'
'vo_'
'viếng_'
'viêc_'
'vivo_'
'vividly_'
'vitamins_'
'vitality_'
'visualized_'
'visits_'
'visionary_'
'visibility_'
'virut_'
'virtuous_'
'virtue_'
'viral_'
'violon_'
'violins_'
'violinist_'
'violations_'
'violated_'
'views_'
'viewing_'
'viewed_'
'videotaped_'
'victimizing_'
'vicissitudes_'
'vicious_'
'vibrations_'
'vibration_'
'vibrating_'
'vibrate_'
'viable_'
'vexing_'
'veterinarian_'
'vessels_'
'vertically_'
'vertical_'
'verse_'
'verified_'
'verification_'
'verges_'
'verdict_'
'verbatim_'
'verbalization_'
'venue_'
'ventilated_'
'vented_'
'ven_'
'velvet_'
'velocity_'
'veins_'
'veiled_'
'vegetarians_'
'vegetarian_'
'vegetable_'
'vegas_'
'veg_'
'vector_'
'vawo_'
'vault_'
'varieties_'
'variable_'
'variability_'
'vapor_'
'vanishes_'
'vanEngelsdorp_'
'valves_'
'valve_'
'valueless_'
'valleys_'
'vague_'
'vacxin_'
'vaccinators_'
'vaccinator_'
'vaccinations_'
'vaccination_'
'vaccinated_'
'vaccinate_'
'vacation_'
'vacated_'
'vacancy_'
'vV_'
'uỷ_'
'uyển_'
'utterly_'
'utterances_'
'utterance_'
'utilizing_'
'utilized_'
'utilize_'
'utility_'
'utero_'
'usurping_'
'usher_'
'uselessness_'
'usefullness_'
'usd_'
'usage_'
'usable_'
'urologist_'
'urinary_'
'urges_'
'urgently_'
'urged_'
'urge_'
'urchin_'
'urbanism_'
'uptake_'
'upstream_'
'upstairs_'
'upstage_'
'upset_'
'uprising_'
'upright_'
'upper_'
'uploaded_'
'upload_'
'upland_'
'update_'
'upcycled_'
'unwise_'
'unwinds_'
'unwelcome_'
'unveil_'
'untapped_'
'unsustainable_'
'unsurprisingly_'
'unstoppable_'
'unstable_'
'unseen_'
'unsatisfying_'
'unruly_'
'unromantic_'
'unresolved_'
'unrequited_'
'unrelated_'
'unproductive_'
'unprocessed_'
'unprepared_'
'unpacks_'
'unorthodox_'
'unnatural_'
'unnamed_'
'unmet_'
'unlocked_'
'unlock_'
'unloading_'
'unloaded_'
'unleash_'
'unknowingly_'
'universals_'
'universally_'
'uniting_'
'unites_'
'uniquely_'
'union_'
'uninvited_'
'uninterrupted_'
'unintended_'
'unintelligably_'
'uninspiring_'
'uninhabited_'
'uniform_'
'unified_'
'unicorn_'
'unheated_'
'unheard_'
'ungulate_'
'unforgettable_'
'unfinished_'
'unfeasibly_'
'unfavorable_'
'unfaithfulness_'
'unfair_'
'uneven_'
'unemployed_'
'unemotional_'
'uneducated_'
'undo_'
'undifferentiated_'
'underutilized_'
'undertook_'
'undertaking_'
'understated_'
'understandable_'
'undernutrition_'
'undermining_'
'undermined_'
'undermine_'
'underly_'
'undergraduate_'
'underestimated_'
'underestimate_'
'underdogs_'
'undeniable_'
'uncovering_'
'uncoated_'
'uncle_'
'uncanny_'
'uncannily_'
'unbroken_'
'unborn_'
'unblinking_'
'unbelievers_'
'unbearable_'
'unaccounted_'
'umbrella_'
'ultra_'
'ulcerating_'
'ulcer_'
'ubuntu_'
'tực_'
'tứ_'
'tịt_'
'tịnh_'
'tệp_'
'tếp_'
'tặc_'
'tản_'
'tạnh_'
'tạch_'
'tước_'
'tơi_'
'tĩu_'
'tăm_'
'tý_'
'tú_'
'tùng_'
'tôt_'
'tót_'
'tòi_'
'tìn_'
'té_'
'tè_'
'tâng_'
'táng_'
'tào_'
'tà_'
'tyrant_'
'tyranny_'
'tyrannical_'
'typography_'
'typographical_'
'typify_'
'typewriter_'
'typeface_'
'twists_'
'twisted_'
'twins_'
'twelve_'
'tweeting_'
'tweeted_'
'tweak_'
'tuột_'
'tuồi_'
'tuốt_'
'tuẫn_'
'tuyểu_'
'tuyền_'
'tuxedo_'
'turquoise_'
'turntables_'
'turntable_'
'turner_'
'turnaround_'
'tunneling_'
'tummy_'
'tugs_'
'tucked_'
'tubing_'
'tubes_'
'tuberculosis_'
'ts_'
'trừng_'
'trớn_'
'trổ_'
'trồi_'
'trọt_'
'trọ_'
'trẹo_'
'trạnh_'
'trư_'
'trơi_'
'trũ_'
'trăn_'
'trút_'
'trúng_'
'trùm_'
'trù_'
'trói_'
'tróc_'
'tròng_'
'tréo_'
'trâu_'
'trâm_'
'trành_'
'tràng_'
'truỵ_'
'truồng_'
'truths_'
'trusts_'
'trumps_'
'trumpet_'
'truckers_'
'trucker_'
'truce_'
'troupe_'
'troublingly_'
'troubling_'
'troubleshooting_'
'troublemakers_'
'troubled_'
'trots_'
'tropical_'
'trophy_'
'trophic_'
'triền_'
'trivial_'
'trivia_'
'triumphant_'
'triumph_'
'tripped_'
'triplicate_'
'trio_'
'trimester_'
'trilobal_'
'triggers_'
'tricky_'
'trickle_'
'trickiness_'
'trich_'
'tribute_'
'tribunal_'
'triangulate_'
'triangular_'
'trendiest_'
'treed_'
'treatments_'
'treaties_'
'tread_'
'tray_'
'traversing_'
'travelers_'
'traps_'
'trapped_'
'trapezium_'
'trap_'
'transporting_'
'transported_'
'transplantation_'
'transparently_'
'transmissions_'
'transmission_'
'translators_'
'transit_'
'transgender_'
'transforms_'
'transfix_'
'transferring_'
'transferred_'
'transducer_'
'transcribe_'
'transcendence_'
'transcended_'
'transcend_'
'transceivers_'
'trainer_'
'trailer_'
'trail_'
'trafficked_'
'traditionally_'
'trader_'
'trademark_'
'traction_'
'trackyourhappiness_'
'tracks_'
'trachoma_'
'tracer_'
'toẹt_'
'toạc_'
'toái_'
'toymaker_'
'toxic_'
'township_'
'towns_'
'towel_'
'tournament_'
'tourist_'
'tourism_'
'touches_'
'totalitarian_'
'totaling_'
'toss_'
'tort_'
'torque_'
'torpedoing_'
'tornadoes_'
'topsoil_'
'topography_'
'toothpaste_'
'toolbox_'
'tonnage_'
'tonkene_'
'tongue_'
'ton_'
'tomboyish_'
'tolerated_'
'toilsome_'
'toilets_'
'toil_'
'toi_'
'togetherness_'
'toenail_'
'toe_'
'tiều_'
'tiêng_'
'tiê_'
'titillate_'
'tins_'
'tinkering_'
'tinkerers_'
'tinker_'
'tiniest_'
'timid_'
'timetables_'
'timer_'
'timed_'
'tilts_'
'tightrope_'
'ties_'
'tidal_'
'ticket_'
'ticker_'
'thủng_'
'thụp_'
'thổng_'
'thốn_'
'thỉu_'
'thễ_'
'thềm_'
'thẻ_'
'thẫm_'
'thầu_'
'thầnh_'
'thảnh_'
'thản_'
'thạo_'
'thưở_'
'thơi_'
'thăp_'
'thùm_'
'thóc_'
'thò_'
'thê_'
'thét_'
'thây_'
'thán_'
'thàng_'
'thyself_'
'thylacines_'
'thuyến_'
'thuyên_'
'thunderclap_'
'thunder_'
'thumbtack_'
'thumbs_'
'thumbprint_'
'thucjw_'
'thru_'
'throws_'
'throwaways_'
'throught_'
'throughput_'
'throat_'
'thriving_'
'thrips_'
'thrice_'
'threefold_'
'thousandth_'
'thoughtful_'
'thorough_'
'thorny_'
'thorns_'
'thong_'
'thon_'
'tho_'
'thiến_'
'thiêu_'
'thiêng_'
'thirsty_'
'thirst_'
'thirdly_'
'thinner_'
'thinh_'
'thigh_'
'thief_'
'thickness_'
'thich_'
'thesis_'
'thermostat_'
'thermometer_'
'thermodynamics_'
'therapist_'
'therapeutic_'
'theorist_'
'theology_'
'theocratic_'
'themed_'
'theft_'
'thee_'
'theaters_'
'thaumaturgical_'
'thanking_'
'thankfully_'
'thanked_'
'thanggs_'
'thali_'
'textured_'
'texture_'
'textiles_'
'texted_'
'textbook_'
'testify_'
'termites_'
'terminology_'
'termed_'
'terawatts_'
'terawatt_'
'tequila_'
'tenuous_'
'tents_'
'tenth_'
'tentacles_'
'tensor_'
'tensions_'
'tennis_'
'tends_'
'tender_'
'tended_'
'tenants_'
'temporal_'
'template_'
'tempers_'
'tempera_'
'tem_'
'telomerase_'
'telltale_'
'telescope_'
'telephony_'
'telegraphic_'
'telegrams_'
'telecommunications_'
'teeny_'
'teens_'
'teenage_'
'tedious_'
'technologized_'
'technologists_'
'technologist_'
'technologically_'
'teaspoons_'
'teamed_'
'taxpayer_'
'tastiest_'
'tasted_'
'targeted_'
'tar_'
'tapping_'
'tapestry_'
'tantalum_'
'tanking_'
'tank_'
'tango_'
'tangible_'
'tang_'
'tambourine_'
'taller_'
'talents_'
'taker_'
'tainted_'
'tails_'
'tailbone_'
'tactile_'
'tacitly_'
'taboo_'
'tabloids_'
'tabletops_'
'sững_'
'sữ_'
'sủng_'
'sụng_'
'sớ_'
'sột_'
'sồng_'
'sọt_'
'sọ_'
'sệt_'
'sếp_'
'sẹo_'
'sẩn_'
'sầm_'
'sấm_'
'sảo_'
'sạc_'
'sườn_'
'sương_'
'sưng_'
'sơi_'
'sút_'
'sôcôla_'
'sòm_'
'séc_'
'sán_'
'systemically_'
'systemic_'
'syringes_'
'synthetic_'
'synthesizers_'
'synecdochically_'
'sync_'
'synaptic_'
'synagogues_'
'symptomatic_'
'symmetry_'
'symbolism_'
'symbolic_'
'symbiotic_'
'syllabuses_'
'swum_'
'swords_'
'sword_'
'swoosh_'
'switches_'
'swishy_'
'swims_'
'swimmers_'
'swimmer_'
'swells_'
'swell_'
'sweeping_'
'sweep_'
'sweaty_'
'swarms_'
'swarm_'
'swam_'
'swallowing_'
'swallow_'
'suyễn_'
'suwrr_'
'sustainably_'
'suspicion_'
'suspense_'
'suspected_'
'survives_'
'surrounds_'
'surround_'
'surrender_'
'surplus_'
'surpass_'
'surging_'
'surfing_'
'surf_'
'surest_'
'suppress_'
'supports_'
'supporting_'
'supplied_'
'supplements_'
'supplementary_'
'supplement_'
'supplanting_'
'supervising_'
'superstars_'
'superorganism_'
'supernova_'
'supernormal_'
'supernatural_'
'superman_'
'superhighway_'
'superheroes_'
'superhero_'
'superficiality_'
'supercharged_'
'superbug_'
'sunspots_'
'sunfat_'
'sunburn_'
'sunbathing_'
'summons_'
'summoned_'
'summed_'
'summarize_'
'summaries_'
'sulfates_'
'suite_'
'suit_'
'suggested_'
'suffused_'
'suffered_'
'sue_'
'sucks_'
'sucker_'
'succumbed_'
'succinctly_'
'subversive_'
'suburbs_'
'suburban_'
'suburb_'
'subtraction_'
'subtly_'
'subtlety_'
'subtleties_'
'subtlest_'
'subtler_'
'substitute_'
'substantially_'
'substance_'
'subsistence_'
'subsets_'
'subsections_'
'subsea_'
'submissive_'
'submissions_'
'submersibles_'
'submersible_'
'submerged_'
'submarines_'
'submarine_'
'sublinear_'
'subjecting_'
'subjected_'
'subdivisions_'
'subculture_'
'subconsciously_'
'stylist_'
'sturdy_'
'stupidly_'
'stupidest_'
'stung_'
'stuffy_'
'stuffed_'
'studios_'
'stud_'
'struggled_'
'structurally_'
'strongholds_'
'strips_'
'stripping_'
'stripped_'
'stripes_'
'striped_'
'strikes_'
'strike_'
'strictly_'
'strict_'
'stretchy_'
'stretches_'
'stretch_'
'stressful_'
'strengthening_'
'streetscapes_'
'streams_'
'streamed_'
'streak_'
'strategizing_'
'strategist_'
'strategic_'
'strapped_'
'strand_'
'straits_'
'strait_'
'straightforward_'
'straightaway_'
'stove_'
'stout_'
'storyteller_'
'stored_'
'stool_'
'stoning_'
'stomachs_'
'stomach_'
'stolen_'
'stoked_'
'stocks_'
'stitches_'
'stitch_'
'stinks_'
'stimulus_'
'stimulation_'
'stimulated_'
'stiff_'
'sticky_'
'sticking_'
'stereotyping_'
'stereotypical_'
'stereotyped_'
'stereos_'
'stellar_'
'steer_'
'steepness_'
'steeped_'
'steam_'
'stays_'
'stayed_'
'statisticians_'
'statistically_'
'statesmen_'
'statecraft_'
'starving_'
'starved_'
'starve_'
'startups_'
'startling_'
'starry_'
'stark_'
'stared_'
'stardom_'
'starch_'
'staple_'
'standup_'
'standardize_'
'stance_'
'stamps_'
'stakes_'
'stake_'
'staircase_'
'stains_'
'stained_'
'stagnate_'
'stadiums_'
'stacking_'
'stacked_'
'stab_'
'squirts_'
'squirt_'
'squire_'
'squeezing_'
'squeaks_'
'squatting_'
'squashed_'
'squares_'
'sq_'
'spying_'
'spurt_'
'sprinting_'
'sprint_'
'springs_'
'springiness_'
'spreadsheets_'
'sprays_'
'sprawl_'
'sprained_'
'spouting_'
'spotted_'
'sponsorship_'
'sponsored_'
'spoiled_'
'spoil_'
'splint_'
'spliced_'
'splendidly_'
'splashed_'
'spiritually_'
'spiritualized_'
'spirits_'
'spiraling_'
'spiral_'
'spigot_'
'spies_'
'spicule_'
'spew_'
'spends_'
'spell_'
'speeds_'
'speeding_'
'speechwriters_'
'speculative_'
'specimen_'
'specifying_'
'specify_'
'specified_'
'specification_'
'specialty_'
'specialness_'
'specialized_'
'specialize_'
'specialization_'
'specialists_'
'spearheaded_'
'spatialized_'
'spat_'
'sparks_'
'sparkling_'
'spare_'
'spanning_'
'spammer_'
'spam_'
'spadix_'
'spaceship_'
'soản_'
'soạt_'
'sovereignty_'
'southwest_'
'southeastern_'
'southeast_'
'sourced_'
'soundwalk_'
'soundtrack_'
'soundness_'
'sought_'
'sorting_'
'sororities_'
'sores_'
'soprano_'
'sooty_'
'sooner_'
'sonication_'
'sonically_'
'sonic_'
'somewhat_'
'somethings_'
'somersaulting_'
'somber_'
'solitude_'
'solitaire_'
'solidifying_'
'solicit_'
'sole_'
'soi_'
'softly_'
'softens_'
'sodas_'
'sociology_'
'sociologist_'
'socio_'
'socializing_'
'soaring_'
'soar_'
'soapboxes_'
'snug_'
'snowstorm_'
'snippet_'
'sniffer_'
'snares_'
'snare_'
'snapshot_'
'snaps_'
'snapping_'
'snaked_'
'snake_'
'smoothly_'
'smoky_'
'smoked_'
'smileyest_'
'smiley_'
'smiles_'
'smelting_'
'smelt_'
'smelled_'
'smashed_'
'smarts_'
'smartphones_'
'smartest_'
'slump_'
'slugs_'
'sludge_'
'slows_'
'slot_'
'sloppy_'
'slips_'
'slipping_'
'slinger_'
'slightest_'
'slideshow_'
'slicing_'
'sliced_'
'slice_'
'sleeve_'
'sleepovers_'
'sleepless_'
'sleek_'
'sled_'
'slave_'
'slaughtered_'
'slaughter_'
'slates_'
'slate_'
'slaps_'
'slacken_'
'slab_'
'skyscrapers_'
'skyline_'
'skydiver_'
'skulls_'
'skirt_'
'skip_'
'skins_'
'skinny_'
'skimpy_'
'skier_'
'skeptical_'
'sizing_'
'situated_'
'sitcoms_'
'sissy_'
'sir_'
'sinkage_'
'singer_'
'sincerity_'
'sincere_'
'sin_'
'simulator_'
'simulations_'
'simulating_'
'simulate_'
'simplistic_'
'simplify_'
'similes_'
'silos_'
'silicone_'
'silently_'
'silde_'
'signings_'
'signatures_'
'signaling_'
'sights_'
'sighted_'
'sieving_'
'sidetracked_'
'sidestep_'
'sickles_'
'si_'
'shyness_'
'shuttles_'
'shutdown_'
'shudder_'
'shtick_'
'shrink_'
'shrimp_'
'shredder_'
'shredded_'
'shower_'
'showcasing_'
'showcased_'
'shovel_'
'shoved_'
'shout_'
'shortsighted_'
'shorthand_'
'shortfall_'
'shortest_'
'shorter_'
'shortened_'
'shortcut_'
'shores_'
'shore_'
'shopkeeper_'
'shook_'
'shoelaces_'
'shoe_'
'shocker_'
'shirts_'
'shipyards_'
'shipped_'
'shipments_'
'shiny_'
'shimmying_'
'shifts_'
'sheriff_'
'shepherding_'
'shelves_'
'shelters_'
'shekel_'
'sheer_'
'shave_'
'shattered_'
'shaping_'
'shaper_'
'shameful_'
'shallows_'
'shalan_'
'shaky_'
'shakti_'
'shafts_'
'shades_'
'shabbier_'
'sexes_'
'sewn_'
'sewing_'
'sewers_'
'sew_'
'seventh_'
'setup_'
'settlements_'
'settings_'
'setbacks_'
'sesame_'
'serum_'
'serpent_'
'sermons_'
'seriti_'
'serendipitously_'
'serendipitous_'
'sequester_'
'sequencing_'
'sequences_'
'separation_'
'separating_'
'separateness_'
'separately_'
'sentenced_'
'sensitized_'
'sensing_'
'sensible_'
'sensed_'
'sensational_'
'seniors_'
'semicircle_'
'semi_'
'semantically_'
'selected_'
'seizures_'
'seismic_'
'seeming_'
'seeks_'
'seeker_'
'seduction_'
'seduces_'
'sediment_'
'secured_'
'sectors_'
'secrecy_'
'secondly_'
'seclusion_'
'sec_'
'seats_'
'seatmate_'
'seasoned_'
'seashells_'
'searing_'
'searched_'
'seagull_'
'seafaring_'
'seafarers_'
'seaboard_'
'sculpt_'
'scrotum_'
'scrolling_'
'scriptures_'
'scripture_'
'scripted_'
'script_'
'screwdrivers_'
'screw_'
'screenshots_'
'screens_'
'screenings_'
'screenhouse_'
'screened_'
'scream_'
'scraps_'
'scrambled_'
'scramble_'
'scours_'
'scourge_'
'score_'
'scoping_'
'scooters_'
'scientifically_'
'schoolwork_'
'schoolteacher_'
'schoolkids_'
'schoolbooks_'
'scholars_'
'schmuck_'
'schlep_'
'schizophonia_'
'scenes_'
'scavenger_'
'scarves_'
'scarred_'
'scarecrow_'
'scare_'
'scarcer_'
'scarcely_'
'scanner_'
'scandal_'
'scalings_'
'scales_'
'scaffolds_'
'scaffolding_'
'saws_'
'savers_'
'sauces_'
'saturation_'
'satisfactory_'
'sargassum_'
'sank_'
'sane_'
'sandy_'
'sandwiching_'
'sandwiches_'
'sandbox_'
'sanctioned_'
'salespeople_'
'salesmen_'
'sailed_'
'sailboat_'
'sags_'
'safest_'
'sadness_'
'sadistic_'
'sacrilege_'
'sacrifices_'
'sacrificed_'
'sachets_'
'saboteur_'
'rữa_'
'rủ_'
'rụng_'
'rởm_'
'rờn_'
'rớt_'
'rộ_'
'rốt_'
'rốc_'
'rể_'
'rền_'
'rắm_'
'rẫy_'
'rẩy_'
'rầm_'
'rạng_'
'rước_'
'rĩ_'
'răn_'
'rôn_'
'rôi_'
'rót_'
'ròng_'
'rít_'
'rìu_'
'rì_'
'rêu_'
'rên_'
'rê_'
'résumés_'
'résumé_'
'rèm_'
'rât_'
'râm_'
'ráo_'
'rám_'
'ruột_'
'ruộng_'
'ruy_'
'rut_'
'rustling_'
'ruling_'
'ruined_'
'rugged_'
'rucksack_'
'rubs_'
'rubble_'
'rub_'
'royal_'
'rovers_'
'routines_'
'routinely_'
'routes_'
'routed_'
'rounded_'
'rough_'
'rotten_'
'rotating_'
'rooting_'
'rooted_'
'rookie_'
'rooftop_'
'roof_'
'rolling_'
'rollercoaster_'
'rolled_'
'roi_'
'rodeo_'
'rocketry_'
'robotically_'
'robes_'
'robbed_'
'roast_'
'roaring_'
'roadside_'
'rivets_'
'rivers_'
'rite_'
'riskiest_'
'risked_'
'riser_'
'ripping_'
'ripped_'
'ripened_'
'riot_'
'rigidity_'
'rigid_'
'righty_'
'righting_'
'rightfully_'
'rightful_'
'rifles_'
'ridicule_'
'rickrolls_'
'richer_'
'rice_'
'ribbon_'
'rhyme_'
'rhetorically_'
'reworking_'
'rework_'
'rewiring_'
'rewire_'
'rewind_'
'revolving_'
'revolutions_'
'revolutionizes_'
'revolutionized_'
'revolutionize_'
'revolting_'
'revolted_'
'revived_'
'revive_'
'revisited_'
'revisit_'
'revised_'
'reviewed_'
'revert_'
'reversion_'
'reverses_'
'reveres_'
'revered_'
'revenues_'
'revelations_'
'revealed_'
'reveal_'
'reused_'
'reunion_'
'retrovirus_'
'retrofits_'
'retrain_'
'retrace_'
'retool_'
'retirements_'
'retirees_'
'retiree_'
'retire_'
'retinas_'
'retinal_'
'rethought_'
'retell_'
'retake_'
'resuscitated_'
'resurrection_'
'resurface_'
'restyled_'
'rests_'
'restrictions_'
'restraints_'
'restoring_'
'restored_'
'restoration_'
'rested_'
'responses_'
'responds_'
'responded_'
'respiratory_'
'respects_'
'respective_'
'respectful_'
'resourcefulness_'
'resorting_'
'resonators_'
'resonates_'
'resonated_'
'resolve_'
'resolution_'
'resize_'
'resisting_'
'residential_'
'reside_'
'reservoirs_'
'reserves_'
'reserved_'
'reservation_'
'resembling_'
'resembles_'
'reselling_'
'rescued_'
'res_'
'reruns_'
'requiring_'
'requirement_'
'requests_'
'requesting_'
'requested_'
'reptilian_'
'reproductive_'
'reproductions_'
'reproduction_'
'reproduced_'
'reprises_'
'represents_'
'representable_'
'repository_'
'reporters_'
'reply_'
'replies_'
'replied_'
'replicating_'
'replay_'
'replaces_'
'replacements_'
'repetition_'
'repeating_'
'reparative_'
'reorganize_'
'reorder_'
'rental_'
'renovate_'
'renewal_'
'renewables_'
'renewable_'
'rendering_'
'rendered_'
'renamed_'
'renaissance_'
'ren_'
'removing_'
'removal_'
'remotely_'
'remnants_'
'reminding_'
'reminder_'
'remembers_'
'remembered_'
'remedy_'
'remarks_'
'remarked_'
'remarkably_'
'remark_'
'remaking_'
'remakes_'
'remaining_'
'reluctant_'
'relocation_'
'reliving_'
'relieving_'
'reliably_'
'relaxing_'
'relativity_'
'relational_'
'rejected_'
'reiterated_'
'reinventing_'
'reintroduce_'
'reinterpret_'
'reintegrating_'
'reintegrated_'
'reinforcing_'
'reinforcement_'
'reimbursable_'
'rehearsal_'
'rehabilitation_'
'rehabilitated_'
'rehab_'
'regulators_'
'regulation_'
'regulated_'
'regulate_'
'regularity_'
'registered_'
'regeneration_'
'regenerating_'
'regardless_'
'regarding_'
'regarded_'
'regaining_'
'regained_'
'regain_'
'refurbished_'
'refrigeration_'
'refrigerate_'
'refreshing_'
'reforming_'
'reformers_'
'reformer_'
'refocus_'
'reflex_'
'reflects_'
'reflector_'
'reflectivity_'
'reflective_'
'reflecting_'
'refined_'
'reefs_'
'redundant_'
'reductions_'
'redistributing_'
'redirect_'
'redial_'
'redefining_'
'redder_'
'recycler_'
'recyclable_'
'recuperate_'
'recruited_'
'recruit_'
'recreating_'
'recreated_'
'recreate_'
'recorder_'
'reconstruction_'
'reconstructing_'
'reconstitute_'
'reconnect_'
'reconciles_'
'reconcile_'
'reconceive_'
'recognizing_'
'reclusive_'
'recluse_'
'reclined_'
'reckon_'
'reckless_'
'reciting_'
'reciprocity_'
'recipient_'
'recipes_'
'recession_'
'recess_'
'receives_'
'receiver_'
'receipt_'
'rebuilding_'
'rebranding_'
'rebirth_'
'rebelled_'
'reawakened_'
'reassuring_'
'reassemble_'
'realization_'
'readjusted_'
'readable_'
'reacts_'
'reactor_'
'reactivity_'
'reactionary_'
'reacting_'
'reaches_'
'rawness_'
'rash_'
'rarer_'
'rao_'
'rank_'
'ranging_'
'ranges_'
'rang_'
'randomized_'
'rand_'
'ramping_'
'rampant_'
'ramen_'
'raises_'
'rainforest_'
'rained_'
'rail_'
'rai_'
'radiology_'
'radiologists_'
'radiologist_'
'radioactive_'
'radicals_'
'radicalization_'
'radiative_'
'radiate_'
'racking_'
'racism_'
'racially_'
'races_'
'raced_'
'racecar_'
'quỷ_'
'quỳ_'
'quở_'
'quắp_'
'quậy_'
'quận_'
'quây_'
'quác_'
'quyề_'
'quoting_'
'quotes_'
'quotation_'
'quorum_'
'quiz_'
'quintessence_'
'quicksand_'
'queues_'
'queue_'
'query_'
'queen_'
'quaternions_'
'quasar_'
'quarters_'
'quarterly_'
'quarries_'
'quantity_'
'quantifying_'
'qualifying_'
'qualified_'
'quadrocopters_'
'quadrillion_'
'pyre_'
'puzzling_'
'puzzled_'
'pursuit_'
'pursued_'
'purposed_'
'purple_'
'purity_'
'purchased_'
'puppy_'
'puppeteers_'
'puppet_'
'pupils_'
'pup_'
'punishment_'
'punished_'
'punish_'
'punctuation_'
'punches_'
'punch_'
'pumping_'
'pulse_'
'pulleys_'
'pulley_'
'puddle_'
'publishing_'
'publishers_'
'publicly_'
'psychosocial_'
'psychophysics_'
'psychologically_'
'psychoanalyst_'
'psycho_'
'psychiatric_'
'psyches_'
'pshu_'
'pshhh_'
'psalm_'
'prudently_'
'provoking_'
'provocateur_'
'proviso_'
'proving_'
'provincial_'
'proved_'
'proudest_'
'prototyping_'
'protocols_'
'protests_'
'protesting_'
'protease_'
'prosperous_'
'prospered_'
'prosper_'
'prosecute_'
'propositions_'
'proposing_'
'proportions_'
'proportion_'
'propolis_'
'prophet_'
'properly_'
'propeller_'
'propel_'
'propagates_'
'propagate_'
'propaganda_'
'pronounce_'
'pronoun_'
'prone_'
'prompt_'
'promotes_'
'promoted_'
'promote_'
'proliferating_'
'projector_'
'projection_'
'progression_'
'progressing_'
'programmer_'
'programmed_'
'programmable_'
'progerin_'
'profiling_'
'profiles_'
'professors_'
'professions_'
'producers_'
'producer_'
'processed_'
'proceedings_'
'proceeded_'
'probable_'
'proactive_'
'pristine_'
'prisms_'
'principally_'
'principal_'
'prided_'
'priceless_'
'prey_'
'prevents_'
'prevailing_'
'prevailed_'
'pretense_'
'pretends_'
'pretending_'
'presuppose_'
'prestigious_'
'pressures_'
'pressed_'
'presidency_'
'preserves_'
'preserver_'
'preserved_'
'presentations_'
'prescriptions_'
'preschool_'
'preps_'
'preposterous_'
'preparedness_'
'prep_'
'prenatal_'
'premier_'
'premarital_'
'preliminary_'
'prejudged_'
'prehistory_'
'prefix_'
'preferring_'
'preferer_'
'preferably_'
'prednisone_'
'predisposed_'
'predilection_'
'predicts_'
'predictions_'
'predicting_'
'predatory_'
'precognitive_'
'precision_'
'precipice_'
'precautions_'
'preacher_'
'preach_'
'prayers_'
'prayer_'
'prayed_'
'praising_'
'praise_'
'prairie_'
'pragmatic_'
'practitioner_'
'practiced_'
'ppera_'
'powerhouse_'
'powders_'
'pouring_'
'poured_'
'pounding_'
'poultry_'
'potholes_'
'potatoes_'
'potato_'
'potassium_'
'postures_'
'posting_'
'posters_'
'possibilites_'
'possessions_'
'possess_'
'posing_'
'posadas_'
'portrayed_'
'portions_'
'portfolio_'
'portal_'
'porridge_'
'porno_'
'porn_'
'pore_'
'populist_'
'popularized_'
'popped_'
'poorer_'
'poop_'
'poodle_'
'ponytail_'
'polygamy_'
'polyethylene_'
'polycarbonate_'
'polycarbonat_'
'polo_'
'pollute_'
'polling_'
'pollinators_'
'pollination_'
'pollinating_'
'politician_'
'policymakers_'
'polices_'
'policemen_'
'policeman_'
'polarizing_'
'polarization_'
'poisonous_'
'poisoned_'
'poised_'
'poise_'
'pointy_'
'pointers_'
'pointer_'
'pointed_'
'poignant_'
'poets_'
'podium_'
'poachers_'
'plutocrats_'
'plurality_'
'plunges_'
'plunge_'
'plummets_'
'plummeting_'
'plummet_'
'plume_'
'plum_'
'plowshares_'
'plow_'
'pledged_'
'pleasurable_'
'pleasant_'
'pleading_'
'playtime_'
'playthings_'
'playhouse_'
'playground_'
'plausible_'
'plasticity_'
'plasmas_'
'plasma_'
'planted_'
'plantation_'
'plagued_'
'plague_'
'placing_'
'placement_'
'placebo_'
'pivots_'
'pivot_'
'pithiest_'
'pitched_'
'piston_'
'pisses_'
'pissed_'
'pirate_'
'piracy_'
'pipped_'
'pipelines_'
'pipeline_'
'pipe_'
'pious_'
'pioneers_'
'pioneering_'
'pioneer_'
'pinwheel_'
'pins_'
'pink_'
'pinewood_'
'pinatas_'
'pilots_'
'pillow_'
'pillars_'
'pilgrimage_'
'piles_'
'piled_'
'pile_'
'pierpont_'
'pierces_'
'pictured_'
'picnic_'
'pi_'
'phực_'
'phụng_'
'phộng_'
'phồn_'
'phết_'
'phập_'
'phẫn_'
'phả_'
'phũ_'
'phúch_'
'phô_'
'phào_'
'phytoplankton_'
'physicians_'
'phthalate_'
'phrases_'
'photophoretic_'
'photographing_'
'photographically_'
'photographic_'
'photoetched_'
'photocopying_'
'photocopies_'
'photoactivating_'
'photic_'
'phosphate_'
'phiếm_'
'phiá_'
'philanthropists_'
'philanthropic_'
'pheromones_'
'phenomenal_'
'phenethylamine_'
'phe_'
'pharmacology_'
'pharma_'
'phai_'
'petty_'
'petrochemicals_'
'petrochemical_'
'petition_'
'pet_'
'pesos_'
'perverted_'
'pervasive_'
'pervades_'
'peruse_'
'pertain_'
'persuades_'
'persuaded_'
'persuade_'
'personnel_'
'personalities_'
'persists_'
'persistent_'
'persevering_'
'persecuted_'
'perpetuating_'
'pernicious_'
'permutations_'
'permits_'
'permeable_'
'permanently_'
'permafrost_'
'periphery_'
'periods_'
'peril_'
'perfuse_'
'perfume_'
'performs_'
'performances_'
'perflubron_'
'perfecting_'
'perceptions_'
'perceives_'
'pensions_'
'penny_'
'penniless_'
'penis_'
'pencil_'
'pellets_'
'pegs_'
'peers_'
'peeling_'
'pedestrians_'
'pedestrian_'
'pedal_'
'pecking_'
'pearl_'
'peanuts_'
'peanut_'
'peaked_'
'peahens_'
'peacock_'
'peacekeeping_'
'peacekeepers_'
'peacefully_'
'pays_'
'payroll_'
'payoffs_'
'payoff_'
'payments_'
'payback_'
'paws_'
'paw_'
'pavilion_'
'paved_'
'paused_'
'patties_'
'patriotism_'
'patriotic_'
'patriarch_'
'patience_'
'pathway_'
'patented_'
'pasting_'
'passivity_'
'passionately_'
'passages_'
'partnerships_'
'participators_'
'participation_'
'parrot_'
'parochialisms_'
'parochialism_'
'parlor_'
'parkway_'
'parked_'
'parenthood_'
'parentheses_'
'parenchyma_'
'pardon_'
'parasite_'
'paralyze_'
'paragraphs_'
'paragliding_'
'parades_'
'parade_'
'parabôn_'
'parabola_'
'par_'
'papers_'
'pandemic_'
'pancreatic_'
'pampas_'
'palu_'
'palmyra_'
'palms_'
'palliative_'
'pales_'
'paleontologists_'
'paints_'
'painter_'
'pads_'
'paddy_'
'packets_'
'packaged_'
'pacifist_'
'p_'
'oăn_'
'oăm_'
'oái_'
'oà_'
'oxygenation_'
'owning_'
'owls_'
'owl_'
'overwhelmingly_'
'overwhelming_'
'overwhelm_'
'overtime_'
'overthrow_'
'overtaken_'
'overstuffed_'
'oversimplification_'
'overseeing_'
'overlooked_'
'overlook_'
'overload_'
'overlap_'
'overlaid_'
'overindexes_'
'overhead_'
'overfishing_'
'overestimate_'
'overdose_'
'overcrowding_'
'ovens_'
'outward_'
'outsourcing_'
'outsiders_'
'outpouring_'
'outmoded_'
'outlined_'
'outline_'
'outlets_'
'outlaw_'
'outlandish_'
'outing_'
'outfits_'
'outdated_'
'ounces_'
'ounce_'
'otaku_'
'osteoporosis_'
'ortho_'
'orphans_'
'orphanages_'
'orphan_'
'ornamental_'
'originated_'
'originate_'
'orients_'
'organizing_'
'organize_'
'organically_'
'ordinarily_'
'orders_'
'ordering_'
'orchid_'
'orbiting_'
'orangutan_'
'opulence_'
'optimization_'
'optimists_'
'optimistically_'
'optic_'
'opted_'
'opt_'
'oppressor_'
'oppressive_'
'oppressed_'
'opposition_'
'opponents_'
'opponent_'
'opisthenar_'
'operator_'
'operatic_'
'openings_'
'op_'
'omnivorously_'
'om_'
'olivine_'
'olfaction_'
'oi_'
'offshore_'
'offs_'
'offload_'
'offenses_'
'offending_'
'offenders_'
'offended_'
'offend_'
'oeuvres_'
'oddly_'
'oddity_'
'oddities_'
'oddball_'
'octopus_'
'oceans_'
'occurs_'
'occurrence_'
'occur_'
'occupying_'
'occupational_'
'occupation_'
'occasions_'
'occasionally_'
'obstruction_'
'obstructed_'
'obsessions_'
'observing_'
'observe_'
'observational_'
'obscurity_'
'oboe_'
'oblivious_'
'obligation_'
'objectivity_'
'objectives_'
'objected_'
'nữaI_'
'nới_'
'nộ_'
'nịt_'
'nểu_'
'nắn_'
'nấp_'
'nạp_'
'nạ_'
'nười_'
'nươc_'
'nôn_'
'nôm_'
'nít_'
'nêm_'
'nè_'
'náy_'
'nàynhững_'
'nuông_'
'nutty_'
'nutshell_'
'nutritious_'
'nutrients_'
'nutrient_'
'nut_'
'nurturing_'
'nurse_'
'numerically_'
'numerical_'
'nuke_'
'nuggets_'
'nudge_'
'nucleus_'
'nuclei_'
'nua_'
'nso_'
'novels_'
'notwithstanding_'
'notoriously_'
'noticing_'
'noted_'
'notebooks_'
'notebook_'
'nostalgic_'
'noses_'
'northwest_'
'normative_'
'normality_'
'normalcy_'
'noonday_'
'noodling_'
'noodle_'
'nonnegotiable_'
'nonfunctional_'
'nonfiction_'
'noncommunicable_'
'nominations_'
'nominate_'
'noises_'
'noisemaking_'
'noi_'
'nodded_'
'noblest_'
'nobleman_'
'niệu_'
'nito_'
'nite_'
'nirvana_'
'ninja_'
'nightmares_'
'nightclub_'
'nieces_'
'nicotine_'
'nicotin_'
'nickname_'
'niches_'
'nicest_'
'nic_'
'ni_'
'nhữn_'
'nhừng_'
'nhứng_'
'nhụi_'
'nhỡ_'
'nhờn_'
'nhớp_'
'nhổ_'
'nhịn_'
'nhị_'
'nhều_'
'nhếch_'
'nhẽo_'
'nhẹn_'
'nhẵn_'
'nhẳm_'
'nhậu_'
'nhậm_'
'nhầy_'
'nhấtt_'
'nhấp_'
'nhấm_'
'nhảm_'
'nhại_'
'nhút_'
'nhún_'
'nhúm_'
'nhõm_'
'nhô_'
'nhòm_'
'nhím_'
'nhí_'
'nhãng_'
'nhât_'
'nhát_'
'nhác_'
'nhàu_'
'nhuộm_'
'nhuốm_'
'nhuần_'
'nhuyễn_'
'nhung_'
'nhoáng_'
'nhiểu_'
'nhiền_'
'nhiếu_'
'nhiếc_'
'nheo_'
'nhen_'
'nhan_'
'ngỷ_'
'ngừời_'
'ngừoi_'
'ngụp_'
'ngợm_'
'ngợi_'
'ngỡ_'
'ngở_'
'ngột_'
'ngỗ_'
'ngịch_'
'ngần_'
'ngấu_'
'ngạn_'
'ngượng_'
'ngơi_'
'ngùng_'
'ngàng_'
'nguỵ_'
'nguời_'
'nguổn_'
'nguôn_'
'ngoảnh_'
'ngoe_'
'ngiên_'
'nghệt_'
'nghẹt_'
'nghẹn_'
'nghĩnh_'
'nghêu_'
'nghành_'
'nghiến_'
'ngac_'
'newsstand_'
'newsreels_'
'newly_'
'newfound_'
'newer_'
'nevertheless_'
'neutrinos_'
'neutrino_'
'neutrality_'
'neutered_'
'neurotransmitters_'
'neurosurgeons_'
'neurosurgeon_'
'neuroscientists_'
'neuroprosthesis_'
'neurobiologists_'
'netted_'
'nests_'
'nested_'
'nest_'
'nerves_'
'nerve_'
'nerdcore_'
'nephews_'
'nephew_'
'neonurture_'
'neocortex_'
'neoconservativism_'
'neoconservatism_'
'neo_'
'nemesis_'
'neither_'
'neighboring_'
'negotiation_'
'neglected_'
'neglect_'
'negatively_'
'needles_'
'necks_'
'necklaces_'
'neck_'
'necessitates_'
'neat_'
'nearby_'
'navigate_'
'naught_'
'naturalistic_'
'natives_'
'native_'
'nationalism_'
'nasty_'
'nastiest_'
'narrowed_'
'narration_'
'narcissistic_'
'narcissism_'
'napot_'
'napkins_'
'napalm_'
'nanowires_'
'nanoscale_'
'nanoparticles_'
'nanomét_'
'nanobees_'
'nannies_'
'namely_'
'naiveté_'
'nails_'
'nai_'
'nagging_'
'nadir_'
'n_'
'mỳ_'
'mửa_'
'mội_'
'mộc_'
'mốt_'
'mống_'
'mốn_'
'mị_'
'mắng_'
'mẫm_'
'mần_'
'mạt_'
'mạ_'
'mượt_'
'môt_'
'mòng_'
'míc_'
'mí_'
'myths_'
'mythologies_'
'mystic_'
'mysteries_'
'myopically_'
'myeloid_'
'mycelium_'
'muông_'
'muà_'
'mutuality_'
'mutualists_'
'mutilation_'
'mutilated_'
'mute_'
'mutates_'
'mustard_'
'muskets_'
'mushrooms_'
'muses_'
'muscles_'
'murderer_'
'murdered_'
'murder_'
'munitions_'
'multitudes_'
'multitude_'
'multiracial_'
'multipolar_'
'multiplied_'
'multiplication_'
'multimillion_'
'multimedia_'
'multidisciplinary_'
'mui_'
'mug_'
'mudras_'
'muddy_'
'muddled_'
'muck_'
'mowing_'
'mourning_'
'mourn_'
'mounting_'
'mounds_'
'motto_'
'motorized_'
'motivations_'
'motivational_'
'motivated_'
'motherfucker_'
'moth_'
'mosaic_'
'morphometric_'
'morphological_'
'morphogenesis_'
'moronically_'
'morbid_'
'moratoriums_'
'morals_'
'morale_'
'mopping_'
'mop_'
'moonlight_'
'monument_'
'monopoly_'
'monoliths_'
'monolithic_'
'monitor_'
'monies_'
'moneys_'
'moneyballing_'
'monetization_'
'momumental_'
'momma_'
'molten_'
'molecular_'
'moist_'
'modified_'
'modest_'
'modernization_'
'modernity_'
'moderation_'
'moderating_'
'moderates_'
'modeled_'
'mockery_'
'mocked_'
'mo_'
'mminh_'
'mm_'
'miểu_'
'mixture_'
'mixtape_'
'mitt_'
'mitochondria_'
'misuse_'
'misunderstanding_'
'misunderstand_'
'mistreated_'
'mistaken_'
'mist_'
'misses_'
'misrepresentation_'
'misplaced_'
'miso_'
'misleading_'
'misinterpret_'
'mishaps_'
'misfortune_'
'miseries_'
'misdirected_'
'misdiagnosed_'
'misconceptions_'
'misconception_'
'mischievous_'
'miraculously_'
'miraculin_'
'miracle_'
'ministers_'
'minimizing_'
'minimally_'
'miniaturization_'
'miniature_'
'mingle_'
'mineral_'
'mindsight_'
'mindset_'
'mindless_'
'minarets_'
'minaret_'
'mimicking_'
'milliseconds_'
'millionaires_'
'millionaire_'
'millennials_'
'millenia_'
'militarization_'
'militarily_'
'milimet_'
'mili_'
'mild_'
'migrated_'
'migrate_'
'migrant_'
'mighty_'
'mightiest_'
'mightier_'
'middleman_'
'microwave_'
'microvascular_'
'microscopist_'
'microscopic_'
'microprocessor_'
'microorganisms_'
'microneedle_'
'micrometeorites_'
'micromanaging_'
'micromanage_'
'microlending_'
'microgrid_'
'micrograph_'
'microfluidic_'
'microelectronics_'
'microcosm_'
'mic_'
'mezzanine_'
'metropolitan_'
'metrics_'
'metis_'
'meticulously_'
'metastatic_'
'metaphorical_'
'metalworkers_'
'metallurgy_'
'metabolizes_'
'meta_'
'messy_'
'messengers_'
'messenger_'
'messed_'
'messaging_'
'mesquite_'
'mesosphere_'
'mesh_'
'meritocratic_'
'merited_'
'merged_'
'mercenaries_'
'meniscus_'
'memorized_'
'memorize_'
'memorable_'
'meme_'
'melts_'
'melt_'
'melody_'
'meld_'
'melancholia_'
'medley_'
'mediums_'
'medicinal_'
'mediated_'
'meddah_'
'medal_'
'med_'
'mechanistic_'
'mechanically_'
'measurable_'
'maze_'
'mayoral_'
'maximum_'
'maximize_'
'max_'
'mau_'
'matzoh_'
'matriarch_'
'mating_'
'mathematizable_'
'mathematicians_'
'maternal_'
'materially_'
'materiality_'
'matchstick_'
'matched_'
'mast_'
'masseuse_'
'mask_'
'mashed_'
'masculinity_'
'marvels_'
'martyrdom_'
'marshy_'
'marshmallow_'
'marshes_'
'marrying_'
'marry_'
'marmite_'
'marketplaces_'
'marketeers_'
'marketed_'
'markerless_'
'maritime_'
'marital_'
'mariners_'
'mariachis_'
'marginalized_'
'marched_'
'marche_'
'marbles_'
'manuscripts_'
'manufacturers_'
'manually_'
'manspaces_'
'manifests_'
'manifestations_'
'manic_'
'manhood_'
'maneuverability_'
'maneuver_'
'mammals_'
'mammalian_'
'mammal_'
'malware_'
'malnutrition_'
'malnourished_'
'malleable_'
'malignancy_'
'malicious_'
'malfunctioning_'
'malevolent_'
'maker_'
'majoring_'
'majorettes_'
'maize_'
'maintenance_'
'maintaining_'
'maintained_'
'mainstay_'
'maiden_'
'magnificence_'
'magnets_'
'magnetism_'
'magnetically_'
'magnet_'
'magie_'
'magician_'
'magically_'
'magazines_'
'mad_'
'maculatum_'
'macroscopic_'
'macroeconomic_'
'lữ_'
'lụa_'
'lộc_'
'lổ_'
'lồm_'
'lẽo_'
'lẻn_'
'lẹ_'
'lầu_'
'lấm_'
'lả_'
'lạp_'
'lạn_'
'lươn_'
'lăp_'
'lún_'
'lúi_'
'lõm_'
'lót_'
'lói_'
'lóc_'
'lòi_'
'lò_'
'lít_'
'líp_'
'lìa_'
'lì_'
'lét_'
'lách_'
'lyrics_'
'lyrical_'
'luống_'
'lust_'
'lush_'
'lunches_'
'luminescence_'
'lugs_'
'luckiest_'
'lubricated_'
'loẹt_'
'loè_'
'loát_'
'loà_'
'loyal_'
'lowest_'
'lover_'
'loudspeakers_'
'loudly_'
'losers_'
'lore_'
'lords_'
'lord_'
'looser_'
'loosely_'
'looping_'
'looms_'
'longing_'
'loner_'
'logically_'
'logging_'
'logbook_'
'logarit_'
'locutions_'
'locust_'
'locomotor_'
'locavore_'
'locate_'
'locally_'
'lobster_'
'lobotomies_'
'lobe_'
'lobbyists_'
'loathe_'
'loai_'
'liệng_'
'liềm_'
'liếc_'
'liêng_'
'liveliness_'
'livelihood_'
'livable_'
'liu_'
'lithotripsy_'
'liters_'
'literary_'
'listens_'
'lipids_'
'lipid_'
'lining_'
'linguistics_'
'linguistically_'
'linguistic_'
'lingered_'
'linearly_'
'lineage_'
'lin_'
'limitless_'
'likelihood_'
'lighters_'
'liger_'
'lifetimes_'
'lifespan_'
'lifelike_'
'licorice_'
'libraries_'
'librarians_'
'liberation_'
'liberating_'
'liberate_'
'liberal_'
'lib_'
'liars_'
'liar_'
'lfa_'
'lexicography_'
'levitating_'
'levitated_'
'leveraging_'
'leveraged_'
'lever_'
'leukemia_'
'lettered_'
'lest_'
'lesser_'
'lesion_'
'leprosy_'
'leopards_'
'lent_'
'lengths_'
'lending_'
'lemonade_'
'legitimate_'
'legislature_'
'legislation_'
'legislating_'
'legends_'
'legally_'
'lectured_'
'leashes_'
'learnings_'
'leaps_'
'leapfrogging_'
'leapfrog_'
'leaks_'
'leaking_'
'leak_'
'leafing_'
'le_'
'lbs_'
'lb_'
'laying_'
'lax_'
'lawsuits_'
'lawsuit_'
'lavish_'
'laurel_'
'laundry_'
'launderer_'
'lattice_'
'latte_'
'latrine_'
'lathe_'
'latent_'
'latency_'
'lastly_'
'lastingly_'
'lasting_'
'lasted_'
'lasers_'
'lasagna_'
'laptops_'
'lapses_'
'lapse_'
'lapels_'
'laparoscopic_'
'laoptop_'
'languished_'
'landmines_'
'landmine_'
'landlords_'
'lamprey_'
'lampposts_'
'lamppost_'
'lamp_'
'lamenting_'
'lamented_'
'lam_'
'lakh_'
'lakes_'
'lakefront_'
'lagging_'
'lads_'
'ladders_'
'lad_'
'lace_'
'labyrinth_'
'kỉnh_'
'kềnh_'
'kền_'
'kình_'
'két_'
'kung_'
'krill_'
'kosher_'
'kong_'
'kobe_'
'knuckle_'
'knowledgeable_'
'knowingly_'
'knots_'
'knocks_'
'knock_'
'knives_'
'knitter_'
'knit_'
'knife_'
'knees_'
'knee_'
'kkhông_'
'kiệu_'
'kiết_'
'kiêm_'
'kite_'
'kitchens_'
'kit_'
'kissing_'
'kiosks_'
'kiosk_'
'kingdom_'
'kinfolk_'
'kin_'
'kilter_'
'kilowatts_'
'kilobytes_'
'killowatts_'
'killer_'
'kidneys_'
'kidnappers_'
'kidnapped_'
'kidding_'
'kickback_'
'kick_'
'khử_'
'khời_'
'khộng_'
'khồng_'
'khốn_'
'khố_'
'khỏ_'
'khắt_'
'khẩn_'
'khấc_'
'khải_'
'khạc_'
'khóm_'
'khâm_'
'khánh_'
'khuỵ_'
'khuông_'
'khoải_'
'khoả_'
'khoé_'
'khoáy_'
'khoàng_'
'khong_'
'khoai_'
'khiểu_'
'khiếu_'
'khiông_'
'khiên_'
'khaki_'
'khac_'
'keystone_'
'keypad_'
'keynote_'
'keepers_'
'karma_'
'karate_'
'karaoke_'
'kangaroos_'
'kangaroo_'
'kang_'
'juxtaposition_'
'juxtapose_'
'justifications_'
'junkie_'
'jumper_'
'jumbo_'
'jumble_'
'jukeboxes_'
'juicy_'
'juggling_'
'ju_'
'joystick_'
'joyful_'
'journeys_'
'journeyman_'
'journalist_'
'journalism_'
'jostling_'
'joking_'
'jokes_'
'joints_'
'joining_'
'joggers_'
'joe_'
'jholabhari_'
'jewels_'
'jewelry_'
'jewel_'
'jerk_'
'jelly_'
'jeer_'
'jebra_'
'jeans_'
'jar_'
'janitor_'
'jams_'
'jails_'
'jacket_'
'jack_'
'jabbers_'
'iên_'
'iu_'
'iterations_'
'ist_'
'issued_'
'isolation_'
'isolate_'
'ischemia_'
'irritating_'
'irreverence_'
'irrationalities_'
'irony_'
'ironically_'
'ironic_'
'ironclad_'
'ionizing_'
'inward_'
'invoke_'
'inviting_'
'invitation_'
'investigators_'
'investigations_'
'investigating_'
'investigated_'
'inventors_'
'inventive_'
'inventing_'
'invasively_'
'invasions_'
'invariably_'
'invading_'
'invader_'
'invaded_'
'inundated_'
'intuitions_'
'intuit_'
'intruder_'
'introverted_'
'introvert_'
'introversion_'
'intrinsic_'
'intriguing_'
'intrigue_'
'intonations_'
'intimidate_'
'intimately_'
'intestine_'
'interviewers_'
'interviewer_'
'intervals_'
'interspecies_'
'intersectionality_'
'intersection_'
'intersect_'
'interrelated_'
'interracial_'
'interpreter_'
'interpersonal_'
'interpenetrated_'
'interpenetrate_'
'internalize_'
'intermittent_'
'intermittency_'
'intermarry_'
'interlocutors_'
'interlocking_'
'interiors_'
'interglacial_'
'interferes_'
'interference_'
'interestingly_'
'interdisciplinarity_'
'interdependence_'
'interconnections_'
'interconnection_'
'interconnectedness_'
'intercept_'
'inter_'
'intentions_'
'intentionally_'
'intent_'
'intensified_'
'intensification_'
'intended_'
'intend_'
'intelligibly_'
'intelligible_'
'intellectuals_'
'intellectually_'
'integrity_'
'integrations_'
'integral_'
'insurrection_'
'insulted_'
'insulating_'
'instructors_'
'instructor_'
'instruction_'
'instructed_'
'institutional_'
'instincts_'
'instinctively_'
'instinct_'
'instantaneously_'
'instantaneous_'
'instances_'
'installed_'
'install_'
'inspirational_'
'insisted_'
'insidious_'
'insides_'
'insideoutproject_'
'inserted_'
'insecticide_'
'inscribed_'
'ins_'
'inquiry_'
'inquire_'
'inorganic_'
'innovator_'
'innocently_'
'inmate_'
'inland_'
'inks_'
'ink_'
'injustices_'
'injustice_'
'injections_'
'injectable_'
'inject_'
'initiatives_'
'initiation_'
'initiate_'
'inhuman_'
'inhibited_'
'inhibit_'
'inherit_'
'inherently_'
'inhalation_'
'inhabiting_'
'inhabitation_'
'inhabitants_'
'inhabitable_'
'inh_'
'ingratiated_'
'ingesting_'
'ingeniously_'
'ing_'
'infused_'
'infringement_'
'infrastructures_'
'informs_'
'informative_'
'informal_'
'infomercials_'
'infomercial_'
'influences_'
'inflicted_'
'inflationary_'
'inflated_'
'inflammatory_'
'infinite_'
'infiltrate_'
'infill_'
'infidelity_'
'infested_'
'inferred_'
'infectious_'
'infect_'
'infantryman_'
'infantry_'
'infant_'
'infamous_'
'inexplicable_'
'inexpensively_'
'inexhaustible_'
'inertial_'
'inert_'
'inequity_'
'inequities_'
'inequalities_'
'inelegant_'
'inefficient_'
'ineffective_'
'inebriated_'
'industrious_'
'industries_'
'inductive_'
'individualisms_'
'indiscriminately_'
'indiscreet_'
'indicted_'
'indicators_'
'index_'
'incurring_'
'incumbent_'
'incorrectly_'
'incorporated_'
'incorporate_'
'inconveniences_'
'inconsistent_'
'inconsistency_'
'incondotional_'
'incomplete_'
'included_'
'incline_'
'incinerators_'
'incidents_'
'incentivize_'
'incapacity_'
'inbox_'
'inanimate_'
'inane_'
'impulsive_'
'improviser_'
'improved_'
'imprinted_'
'impressions_'
'impressed_'
'imposture_'
'impossibly_'
'imposed_'
'imply_'
'implore_'
'implicitly_'
'implicit_'
'implemented_'
'implanted_'
'implantables_'
'impersonating_'
'imperfections_'
'imperfect_'
'impedance_'
'impatient_'
'impassioned_'
'immunize_'
'immoral_'
'immigrants_'
'immigrant_'
'immersed_'
'immature_'
'imitate_'
'imbalance_'
'imagining_'
'illustrator_'
'illustration_'
'illustrating_'
'illustrate_'
'illusory_'
'illuminating_'
'illogical_'
'illnesses_'
'illicit_'
'ill_'
'ikigai_'
'ignorant_'
'ignition_'
'ie_'
'idiocy_'
'ideology_'
'ideologues_'
'ideological_'
'ideograph_'
'identifying_'
'identically_'
'idealized_'
'idealistic_'
'iconic_'
'icon_'
'iRobot_'
'iPod_'
'iCloud_'
'hững_'
'hứơng_'
'hủ_'
'hụt_'
'hợt_'
'hời_'
'hớn_'
'hễ_'
'hể_'
'hế_'
'hẳng_'
'hắt_'
'hẫp_'
'húc_'
'hú_'
'hùm_'
'hót_'
'hói_'
'hòng_'
'hòm_'
'hê_'
'héc_'
'hãn_'
'hãm_'
'hâu_'
'hân_'
'há_'
'hypothetical_'
'hypothesized_'
'hypocrites_'
'hypochondriac_'
'hyperbolic_'
'hype_'
'hymen_'
'hyena_'
'hydrophones_'
'hydrophone_'
'hydrocarbon_'
'huỵch_'
'huyễn_'
'huyên_'
'hutch_'
'hustles_'
'hurts_'
'hurting_'
'hurtful_'
'hurry_'
'hurdy_'
'hurdles_'
'hun_'
'humorous_'
'humongous_'
'hummingbird_'
'humility_'
'humanoid_'
'humanize_'
'humanistic_'
'hulls_'
'hugs_'
'huddled_'
'hub_'
'hp_'
'hoóc_'
'hoán_'
'hovers_'
'hover_'
'housewife_'
'hotels_'
'hotdogs_'
'hotdog_'
'hosting_'
'hosted_'
'hostage_'
'hospitalized_'
'hospice_'
'hoses_'
'horsing_'
'horseshoer_'
'horseradish_'
'hors_'
'horrifies_'
'horrific_'
'horribly_'
'hormon_'
'horizontally_'
'horizontal_'
'horizons_'
'hops_'
'hopping_'
'hopes_'
'hoops_'
'hook_'
'hooc_'
'honored_'
'honeybees_'
'honeybee_'
'honey_'
'homosexuality_'
'homosexual_'
'homing_'
'hominem_'
'homework_'
'homesick_'
'homepage_'
'homage_'
'hollowing_'
'holies_'
'hoc_'
'hobby_'
'hoax_'
'hoan_'
'hiệc_'
'hiên_'
'hives_'
'hips_'
'hippocampus_'
'hippies_'
'hippie_'
'hints_'
'hinterland_'
'hillside_'
'hills_'
'hilarious_'
'hiked_'
'hike_'
'highlighting_'
'highlighted_'
'hieroglyphics_'
'hierarchies_'
'hidro_'
'hides_'
'hidebound_'
'hiccup_'
'hey_'
'hexene_'
'heterosexual_'
'heterarchy_'
'hesitation_'
'hesitates_'
'hesitant_'
'hers_'
'herring_'
'heroin_'
'heroically_'
'heritage_'
'heritability_'
'heretics_'
'heretical_'
'herbal_'
'heralds_'
'hep_'
'henchmen_'
'hence_'
'hen_'
'hemisphere_'
'hemisections_'
'hem_'
'helplessness_'
'helpers_'
'helmet_'
'helix_'
'helianthemum_'
'heist_'
'heightened_'
'heighten_'
'heels_'
'heaving_'
'heavens_'
'heatwave_'
'heats_'
'heartily_'
'heartache_'
'healthiest_'
'heals_'
'headset_'
'headphones_'
'headphone_'
'headlong_'
'header_'
'hazy_'
'hazardous_'
'hazard_'
'haywire_'
'hawk_'
'hating_'
'hatch_'
'hassles_'
'harvested_'
'harvest_'
'harnessed_'
'harness_'
'harmony_'
'harmless_'
'harming_'
'harm_'
'harker_'
'hardcore_'
'harassment_'
'harassed_'
'harangued_'
'happiest_'
'hankers_'
'hangs_'
'hangover_'
'handwriting_'
'handsaw_'
'handouts_'
'handling_'
'handing_'
'handily_'
'handgun_'
'handful_'
'handbags_'
'hammers_'
'hamburgers_'
'halves_'
'hallways_'
'hallucination_'
'hallucinate_'
'hallowed_'
'halfway_'
'hairstyling_'
'hairstyles_'
'hairs_'
'haired_'
'hail_'
'haiku_'
'hacks_'
'habitable_'
'gừng_'
'gừ_'
'gởi_'
'gờ_'
'gội_'
'gồi_'
'gọm_'
'gỉ_'
'gặm_'
'gẳng_'
'gấm_'
'gải_'
'gạt_'
'gạc_'
'găm_'
'gù_'
'gót_'
'gòn_'
'gìđược_'
'gáy_'
'gán_'
'gàng_'
'gàn_'
'gài_'
'gyros_'
'gyre_'
'guồng_'
'gushing_'
'gurdy_'
'gunfights_'
'guitar_'
'guiding_'
'guests_'
'guarding_'
'grownup_'
'grower_'
'groupings_'
'grouping_'
'grounds_'
'grossly_'
'grooves_'
'groove_'
'grocery_'
'grit_'
'grimmer_'
'grilled_'
'gridlock_'
'griddy_'
'greyhound_'
'grey_'
'gremlin_'
'greenway_'
'greenest_'
'greener_'
'gravitational_'
'gravitate_'
'gratuitous_'
'gratefulness_'
'grasshopper_'
'grasp_'
'grappling_'
'grapple_'
'graphic_'
'grapevine_'
'grapes_'
'grant_'
'grandmasters_'
'grandmaster_'
'grandiose_'
'grandfathers_'
'granddaddy_'
'grammatical_'
'grainy_'
'grains_'
'graft_'
'graffiti_'
'graduated_'
'graduate_'
'grading_'
'grades_'
'grabs_'
'goá_'
'gown_'
'governed_'
'gourmet_'
'gotta_'
'gothic_'
'gossip_'
'gosh_'
'gory_'
'goosebumps_'
'goose_'
'google_'
'goodness_'
'gonads_'
'goi_'
'godspeed_'
'godmother_'
'godless_'
'godfather_'
'godesses_'
'goddesses_'
'glyco_'
'glows_'
'gloriously_'
'glimmer_'
'glean_'
'glad_'
'glacial_'
'giối_'
'giỏ_'
'giắc_'
'giập_'
'giầy_'
'giầu_'
'giần_'
'giơi_'
'giùm_'
'giông_'
'gióng_'
'giòn_'
'giêngf_'
'gist_'
'girdle_'
'giraffe_'
'gilded_'
'giiếm_'
'gigahertz_'
'gigabytes_'
'gigabases_'
'gifts_'
'gibbering_'
'giants_'
'gi_'
'ghềnh_'
'ghìm_'
'ghì_'
'ghén_'
'ghé_'
'ghiếc_'
'ghironda_'
'geta_'
'geriatrics_'
'geopolitical_'
'geometry_'
'geometrically_'
'geometric_'
'gents_'
'genres_'
'genomics_'
'genomic_'
'genitally_'
'genital_'
'generosity_'
'generative_'
'generational_'
'generating_'
'generates_'
'generalize_'
'generalists_'
'gelding_'
'gelatinous_'
'gelatin_'
'geisha_'
'geezer_'
'geez_'
'geeks_'
'geek_'
'gathers_'
'gatekeepers_'
'gatekeeper_'
'gate_'
'gasping_'
'garnet_'
'gargantuan_'
'gardening_'
'gardener_'
'garages_'
'gaps_'
'gaming_'
'gamers_'
'gamer_'
'gamely_'
'gamble_'
'gam_'
'gals_'
'gallons_'
'galactosyl_'
'galactic_'
'gaining_'
'gained_'
'gaga_'
'gadgets_'
'fải_'
'futureless_'
'futile_'
'fuss_'
'fused_'
'furthest_'
'furthermore_'
'furries_'
'furiously_'
'fur_'
'funnels_'
'funnel_'
'fungi_'
'fundamentalists_'
'fundamentalism_'
'functionality_'
'fulfilling_'
'fulfilled_'
'fuelled_'
'fueling_'
'fueled_'
'fudge_'
'fucking_'
'fu_'
'frustration_'
'frustrating_'
'fructose_'
'frowning_'
'frown_'
'frontiers_'
'fringe_'
'frill_'
'frightens_'
'frighten_'
'friendships_'
'fried_'
'frictionless_'
'frictional_'
'fret_'
'freshman_'
'frequently_'
'frenzy_'
'freezing_'
'freezes_'
'freeze_'
'freeing_'
'freed_'
'freebasing_'
'freckles_'
'freaks_'
'freaked_'
'fraternal_'
'frantically_'
'franchise_'
'franc_'
'frameworks_'
'frames_'
'framers_'
'frail_'
'fragments_'
'fragmented_'
'fragility_'
'foyer_'
'foxes_'
'fountain_'
'founding_'
'fostered_'
'fossils_'
'forum_'
'fortune_'
'fortunately_'
'fortuitous_'
'fortress_'
'formulations_'
'formulation_'
'formulating_'
'formless_'
'forming_'
'formats_'
'formations_'
'formally_'
'forging_'
'foretold_'
'foresaw_'
'foreplay_'
'foreigners_'
'foreigner_'
'forehead_'
'foreground_'
'foregone_'
'forecasts_'
'forearm_'
'forbidding_'
'forage_'
'footing_'
'fooling_'
'fooled_'
'foodstuffs_'
'followers_'
'follower_'
'foils_'
'foibles_'
'foggy_'
'fogeys_'
'fog_'
'focuses_'
'foam_'
'flywheels_'
'fluorescent_'
'flung_'
'fluidly_'
'fluidity_'
'fluid_'
'fluent_'
'fluency_'
'flowed_'
'flour_'
'floss_'
'florid_'
'flora_'
'floodplain_'
'flooded_'
'flocks_'
'flirting_'
'flipside_'
'flipper_'
'flipped_'
'flip_'
'fling_'
'flexible_'
'flexibility_'
'flex_'
'fledglings_'
'fled_'
'flawed_'
'flattened_'
'flatbed_'
'flask_'
'flashlight_'
'flashes_'
'flapping_'
'flammable_'
'flake_'
'fixing_'
'fixer_'
'fixation_'
'fixated_'
'fittest_'
'fitted_'
'fitness_'
'fist_'
'fishmonger_'
'fishes_'
'fishery_'
'fishermen_'
'firsthand_'
'firm_'
'firework_'
'fireproof_'
'fireman_'
'firefighters_'
'fir_'
'finite_'
'finishing_'
'fingernails_'
'fingered_'
'finances_'
'filters_'
'filmmakers_'
'filmed_'
'filed_'
'filaments_'
'fights_'
'fifty_'
'fierce_'
'fielded_'
'fidelity_'
'fiddler_'
'fiddle_'
'fictional_'
'fibroid_'
'fi_'
'fever_'
'festivals_'
'fertilizer_'
'fertilized_'
'fertility_'
'ferocious_'
'feral_'
'fen_'
'feeder_'
'feedbacks_'
'fecundity_'
'feces_'
'fecal_'
'feathered_'
'feast_'
'fearless_'
'feared_'
'favorites_'
'favela_'
'faults_'
'fault_'
'fatty_'
'fatalism_'
'fastfood_'
'fashions_'
'fashionable_'
'fascination_'
'farmland_'
'fark_'
'fanzine_'
'fantasies_'
'fanciful_'
'fame_'
'fallstreak_'
'fallow_'
'fallen_'
'falcons_'
'falafel_'
'faithul_'
'fairy_'
'fainting_'
'faggot_'
'faculties_'
'facto_'
'facade_'
'fabulously_'
'fMRI_'
'eyespot_'
'eyesight_'
'eyebrows_'
'eyeball_'
'extrovert_'
'extremists_'
'extremism_'
'extraordinarily_'
'extracts_'
'extraction_'
'extracellular_'
'externally_'
'extenuating_'
'extensively_'
'extensive_'
'extends_'
'extending_'
'expressible_'
'expressed_'
'expounds_'
'exposures_'
'exposing_'
'exports_'
'export_'
'expo_'
'explosive_'
'explorer_'
'exploits_'
'exploding_'
'explode_'
'explanations_'
'expired_'
'experimenter_'
'experimented_'
'expenses_'
'expeditions_'
'expectancies_'
'exorbitant_'
'exit_'
'existential_'
'exhilaration_'
'exhibit_'
'exertions_'
'exert_'
'exemplars_'
'execution_'
'executed_'
'exe_'
'excuses_'
'excruciating_'
'exclusively_'
'exclusive_'
'excluded_'
'exclude_'
'excitatory_'
'excessively_'
'excerpts_'
'excerpted_'
'excerpt_'
'exceptional_'
'excellent_'
'excel_'
'exasperation_'
'exams_'
'exaggeration_'
'exaggerating_'
'exaggerate_'
'exacerbate_'
'evolving_'
'evolves_'
'evolutionarily_'
'evoke_'
'eventual_'
'evangelize_'
'evaluators_'
'evaluation_'
'evaluate_'
'evade_'
'evacuated_'
'euros_'
'euro_'
'eugenics_'
'eudaimonian_'
'ethnicity_'
'ethnically_'
'ethnic_'
'ether_'
'ethanol_'
'eternal_'
'etching_'
'estrogen_'
'establishment_'
'establishing_'
'establishes_'
'establish_'
'essay_'
'espresso_'
'espouse_'
'esoteric_'
'escaped_'
'escalating_'
'escalate_'
'es_'
'erstwhile_'
'eroticism_'
'erotica_'
'ergo_'
'erectus_'
'erase_'
'eradication_'
'equivalence_'
'equip_'
'equilibrium_'
'equatorial_'
'equator_'
'equality_'
'equaled_'
'epitope_'
'epitome_'
'episode_'
'epiphany_'
'epinephrine_'
'epidote_'
'epidemiologist_'
'epidemics_'
'epic_'
'ephemeral_'
'eo_'
'enzymes_'
'enzym_'
'envy_'
'environmentalists_'
'envious_'
'entrepreneurs_'
'entorhinal_'
'enthusiasts_'
'enthusiastic_'
'enthusiasm_'
'enthralling_'
'enthralled_'
'entertain_'
'enters_'
'enterprise_'
'entering_'
'entailed_'
'ensued_'
'enslave_'
'enshrined_'
'ensemble_'
'enriched_'
'enrich_'
'enliven_'
'enlist_'
'enlightening_'
'enlightened_'
'enlighten_'
'enjoys_'
'enjoyed_'
'enhances_'
'enhancement_'
'engulf_'
'engineered_'
'engages_'
'enforcement_'
'enduring_'
'endurance_'
'endorse_'
'endless_'
'endgame_'
'endeavors_'
'encryption_'
'encrypted_'
'encouraged_'
'encore_'
'enchanting_'
'enchanted_'
'enabled_'
'enable_'
'en_'
'emulate_'
'emptying_'
'emptiness_'
'emptier_'
'empowerment_'
'employs_'
'employing_'
'employers_'
'employee_'
'empirically_'
'empirical_'
'emphasis_'
'empathizing_'
'empathize_'
'emitting_'
'emitter_'
'eminently_'
'embryonic_'
'embryo_'
'embracing_'
'embraced_'
'embodiment_'
'emblem_'
'embeds_'
'embedding_'
'embedded_'
'embassies_'
'embarrassment_'
'embarrassed_'
'embarrass_'
'emancipated_'
'emailed_'
'emaciated_'
'elves_'
'elusive_'
'eludes_'
'elliptical_'
'elixir_'
'elitist_'
'eliminated_'
'eliminate_'
'elevated_'
'elegantly_'
'elegance_'
'electroplating_'
'electronically_'
'electromagnetic_'
'electromagnet_'
'electrolyte_'
'electrolysis_'
'electrochemical_'
'elated_'
'elastic_'
'elapse_'
'eject_'
'egos_'
'egocentric_'
'egalitarianism_'
'effortful_'
'efficiently_'
'efficiencies_'
'effectiveness_'
'eel_'
'educators_'
'educator_'
'edits_'
'editors_'
'editorials_'
'editorial_'
'editing_'
'edited_'
'ed_'
'ecstasy_'
'economically_'
'ecology_'
'ecologist_'
'eclipses_'
'eclipsed_'
'echo_'
'ebb_'
'eats_'
'eaters_'
'earrings_'
'earnings_'
'earning_'
'earned_'
'earn_'
'earmarked_'
'eared_'
'eagle_'
'eagerly_'
'eager_'
'eBay_'
'dồ_'
'dỏm_'
'dọn_'
'dịnh_'
'dệt_'
'dẹt_'
'dặt_'
'dặn_'
'dằn_'
'dật_'
'dẫm_'
'dầm_'
'dạn_'
'dướighế_'
'dơi_'
'dĩa_'
'dòm_'
'dí_'
'dìu_'
'dè_'
'dzậy_'
'dyslexic_'
'dynasty_'
'dynamism_'
'dynamics_'
'dynamicism_'
'dynamically_'
'dye_'
'dwindling_'
'dwarfed_'
'duựng_'
'duới_'
'duỗi_'
'duty_'
'dust_'
'duress_'
'duplicating_'
'duplicated_'
'dunk_'
'dumpy_'
'dumps_'
'dumping_'
'dulls_'
'duffel_'
'duel_'
'dude_'
'ducts_'
'duck_'
'dubbed_'
'dual_'
'drunken_'
'drummer_'
'drummed_'
'drown_'
'drought_'
'dropouts_'
'droplet_'
'droid_'
'drip_'
'drinkable_'
'drift_'
'dressing_'
'dressed_'
'drenched_'
'dredged_'
'dreaming_'
'drawbacks_'
'drastically_'
'drastic_'
'dramas_'
'drags_'
'dragged_'
'drag_'
'drafts_'
'drafting_'
'doạnh_'
'downward_'
'downstream_'
'downsides_'
'downplay_'
'downloads_'
'downhill_'
'downfall_'
'dove_'
'doubts_'
'doubly_'
'dotted_'
'dormant_'
'dopants_'
'doorways_'
'doorbell_'
'doomed_'
'doodles_'
'donkeys_'
'donkey_'
'donations_'
'donation_'
'dominating_'
'domestic_'
'dome_'
'domains_'
'dolos_'
'doled_'
'dogma_'
'documentation_'
'docs_'
'docks_'
'dock_'
'doa_'
'diệnh_'
'diếp_'
'dizzy_'
'divorcing_'
'divides_'
'diverts_'
'diversify_'
'divers_'
'divergent_'
'disturbances_'
'distressing_'
'distracts_'
'distractions_'
'distracted_'
'distorting_'
'distinguish_'
'distinctly_'
'distinctively_'
'distill_'
'distasteful_'
'distances_'
'dissipate_'
'disseminate_'
'dissecting_'
'dissect_'
'disruption_'
'disrupting_'
'disrupt_'
'disrespectful_'
'disprove_'
'disproportionately_'
'disproportionality_'
'dispositional_'
'disposed_'
'displace_'
'dispersants_'
'dispensers_'
'dispensed_'
'disparities_'
'disorderly_'
'dismissed_'
'dismayed_'
'dismantled_'
'disinvestment_'
'disintegrate_'
'disincentivize_'
'disguised_'
'disgrace_'
'disentangle_'
'disenchanted_'
'disdained_'
'discursive_'
'discretely_'
'discrete_'
'discotheque_'
'discontinuity_'
'discontent_'
'discomfort_'
'disclosure_'
'disclose_'
'disclaimer_'
'discarded_'
'disbelief_'
'disapproving_'
'disappointments_'
'disappointment_'
'disappears_'
'disagrees_'
'disagree_'
'disaggregation_'
'disabuse_'
'disabling_'
'dis_'
'dirtiest_'
'dire_'
'diplomacy_'
'diner_'
'dim_'
'diluting_'
'diligently_'
'dilemma_'
'digitized_'
'digitize_'
'dig_'
'diffusion_'
'diffuse_'
'differ_'
'dieting_'
'diesel_'
'diem_'
'dictated_'
'diarrhea_'
'diamonds_'
'diamond_'
'dialysis_'
'dialing_'
'dialed_'
'dialects_'
'dialect_'
'diagonal_'
'diagnose_'
'diabetic_'
'devour_'
'devotional_'
'devoting_'
'devolves_'
'devising_'
'devised_'
'devise_'
'deviations_'
'developments_'
'developers_'
'deuterium_'
'determinedly_'
'determinants_'
'determinant_'
'detectors_'
'detailing_'
'destroys_'
'destroyer_'
'destitute_'
'destiny_'
'despised_'
'desperately_'
'desires_'
'deserving_'
'deserves_'
'deserved_'
'descriptions_'
'describing_'
'descending_'
'descended_'
'desalination_'
'derive_'
'derail_'
'depressions_'
'depositing_'
'deposit_'
'depicts_'
'dependency_'
'dentists_'
'densest_'
'denser_'
'denoted_'
'demos_'
'demoralizing_'
'demonstrating_'
'demolition_'
'demoiselle_'
'democratization_'
'democracies_'
'dematerialize_'
'demands_'
'demanded_'
'demand_'
'demagogues_'
'delta_'
'delivers_'
'delivered_'
'delightful_'
'delighted_'
'deliciously_'
'deliberations_'
'deliberately_'
'delete_'
'delayed_'
'delay_'
'del_'
'degenerate_'
'defy_'
'deforestation_'
'deflate_'
'definitive_'
'definable_'
'deficit_'
'defending_'
'defenders_'
'deer_'
'deepen_'
'deemed_'
'deed_'
'dedicates_'
'decrees_'
'decreased_'
'decoys_'
'decorating_'
'decorated_'
'decompressing_'
'decomposition_'
'decompose_'
'decolonization_'
'declare_'
'decisive_'
'decipher_'
'decimating_'
'deciduous_'
'deceptively_'
'decentralized_'
'decentralization_'
'decency_'
'deceived_'
'deceive_'
'deceased_'
'decadal_'
'debut_'
'debating_'
'debate_'
'debased_'
'dealer_'
'dazzling_'
'daylighting_'
'daylight_'
'dative_'
'dates_'
'datasets_'
'databases_'
'database_'
'dat_'
'dash_'
'dart_'
'darling_'
'darkest_'
'darker_'
'dares_'
'dared_'
'danger_'
'dancing_'
'dances_'
'dancers_'
'dammed_'
'damaging_'
'dalliances_'
'dairy_'
'daggers_'
'dadaratatatah_'
'cựu_'
'cừ_'
'cỡi_'
'cở_'
'cớ_'
'cộm_'
'cỗi_'
'cồng_'
'cồm_'
'cồ_'
'cỏi_'
'cắn_'
'cật_'
'cảc_'
'cưởi_'
'cơm_'
'căm_'
'cùn_'
'cùm_'
'cáu_'
'cáng_'
'càu_'
'cysts_'
'cynicism_'
'cyclones_'
'cyclone_'
'cycling_'
'cyborg_'
'cyberwar_'
'cybercriminals_'
'cyberattacks_'
'cuôc_'
'cutoff_'
'cutaway_'
'customized_'
'customization_'
'cussing_'
'curvy_'
'curves_'
'curtsey_'
'cursor_'
'curricula_'
'curly_'
'curls_'
'curiously_'
'curable_'
'cupboard_'
'culturally_'
'culturalism_'
'cultivation_'
'cultivate_'
'cues_'
'cucumber_'
'cub_'
'cta_'
'crô_'
'crystals_'
'crystallography_'
'crystal_'
'cryptography_'
'cryonics_'
'cryogens_'
'cryo_'
'crux_'
'crusaders_'
'crunches_'
'crummy_'
'cruelest_'
'cruel_'
'crudely_'
'crowdsurfing_'
'crossword_'
'crossed_'
'crops_'
'crocheted_'
'critter_'
'criticized_'
'criticize_'
'cripples_'
'criminalizing_'
'crib_'
'crew_'
'creeping_'
'creeks_'
'credible_'
'credibility_'
'creatively_'
'craziest_'
'crawling_'
'crawl_'
'craving_'
'crater_'
'crashes_'
'crappy_'
'craggly_'
'craftsmen_'
'cracks_'
'cracking_'
'crab_'
'cozily_'
'coyotes_'
'coyote_'
'cowboys_'
'courtship_'
'coupled_'
'coupe_'
'coup_'
'county_'
'countryside_'
'counties_'
'counters_'
'counterpart_'
'countdown_'
'counseling_'
'counsel_'
'coumarin_'
'cough_'
'couchsurfing_'
'couch_'
'costly_'
'cosmology_'
'cosmologist_'
'cosmic_'
'cosmetics_'
'cortical_'
'corrupts_'
'corrupted_'
'corrupt_'
'corresponding_'
'correspondences_'
'correspondence_'
'correlations_'
'correctly_'
'correction_'
'corralling_'
'corporate_'
'copious_'
'copied_'
'coordinating_'
'coordinated_'
'coordinate_'
'cooperating_'
'cooperate_'
'cools_'
'coolest_'
'cookie_'
'cooked_'
'convulsions_'
'convoluted_'
'convincingly_'
'convincing_'
'conviction_'
'convey_'
'converts_'
'converter_'
'conversely_'
'converse_'
'conversational_'
'convergence_'
'conventions_'
'conveniently_'
'convenience_'
'controversially_'
'controllers_'
'controller_'
'contribution_'
'contributing_'
'contributes_'
'contracts_'
'contracting_'
'contract_'
'continuum_'
'continuously_'
'contests_'
'contestant_'
'contentment_'
'contend_'
'contemporaries_'
'contemplative_'
'contemplation_'
'contemplated_'
'contemplate_'
'containing_'
'consuming_'
'consumers_'
'consume_'
'consultant_'
'constructing_'
'constrictors_'
'constraint_'
'constrained_'
'constrain_'
'constitution_'
'constitutes_'
'constellation_'
'consortium_'
'consolidated_'
'consists_'
'consistent_'
'consistency_'
'considerably_'
'considerable_'
'conserving_'
'conserve_'
'conservatism_'
'consequently_'
'consents_'
'consciously_'
'conquered_'
'connects_'
'connectivity_'
'connective_'
'conjure_'
'congressional_'
'congratulations_'
'congratulating_'
'congenitally_'
'conformity_'
'confiscating_'
'confiscated_'
'confirms_'
'confines_'
'confined_'
'configurations_'
'confides_'
'confide_'
'confession_'
'confers_'
'conferences_'
'conduit_'
'conductor_'
'conductive_'
'conduct_'
'condone_'
'condom_'
'conditioner_'
'conditional_'
'condensed_'
'concussion_'
'concussed_'
'concomitant_'
'concocting_'
'conclusions_'
'concise_'
'concerts_'
'concerto_'
'conceptual_'
'conception_'
'computerized_'
'computations_'
'computation_'
'computable_'
'comptete_'
'comprehensive_'
'comprehension_'
'compounds_'
'compositions_'
'composition_'
'composed_'
'compliant_'
'compliance_'
'complexities_'
'complexes_'
'complement_'
'complaints_'
'complaint_'
'complain_'
'compiled_'
'competitor_'
'competitive_'
'competitions_'
'competed_'
'compensation_'
'compensating_'
'compensated_'
'compensate_'
'compel_'
'compassionate_'
'comparable_'
'communist_'
'communicative_'
'communicates_'
'communicable_'
'communal_'
'commons_'
'commonest_'
'commonality_'
'commonalities_'
'committees_'
'committee_'
'commitments_'
'commissions_'
'commercializing_'
'commentary_'
'commemorating_'
'commandos_'
'commanding_'
'commanders_'
'comically_'
'comets_'
'comedians_'
'comedian_'
'combustion_'
'combines_'
'coltan_'
'colossal_'
'coloration_'
'colonization_'
'collude_'
'collision_'
'collided_'
'collections_'
'collars_'
'collar_'
'collagen_'
'collaboratively_'
'collaborates_'
'coli_'
'coleoptera_'
'coldest_'
'colder_'
'coins_'
'coincidentally_'
'coin_'
'coiffed_'
'cohorts_'
'coffeehouse_'
'codify_'
'codec_'
'codable_'
'cocoon_'
'coconut_'
'cobblestones_'
'cob_'
'coax_'
'coauthors_'
'coauthor_'
'coatis_'
'coat_'
'coasted_'
'coarse_'
'coalitions_'
'coalesce_'
'coaching_'
'club_'
'cloudspotting_'
'clothing_'
'cloth_'
'closeness_'
'clones_'
'cloned_'
'clone_'
'clogged_'
'clobbered_'
'clips_'
'clippers_'
'clinicians_'
'clinic_'
'climber_'
'climbed_'
'climatologist_'
'clicking_'
'clicked_'
'cleverly_'
'clerks_'
'clergyman_'
'clenched_'
'cleared_'
'cleanliness_'
'cleaning_'
'cleaner_'
'claws_'
'claw_'
'claustrophobic_'
'classy_'
'classwork_'
'classmates_'
'classify_'
'clash_'
'clarion_'
'clarify_'
'clandestine_'
'clamor_'
'civilians_'
'citywide_'
'cite_'
'cis_'
'circumventing_'
'circumvent_'
'circulatory_'
'circulates_'
'circulated_'
'circles_'
'circled_'
'circadian_'
'cinder_'
'chựng_'
'chững_'
'chửng_'
'chủa_'
'chổi_'
'chồn_'
'chẵng_'
'chật_'
'chập_'
'chược_'
'chường_'
'chũng_'
'chún_'
'chít_'
'chích_'
'chì_'
'chém_'
'chèo_'
'chât_'
'chát_'
'chutzpah_'
'chutes_'
'churches_'
'chunks_'
'chugging_'
'chubby_'
'chris_'
'choáng_'
'choreography_'
'choreographed_'
'chops_'
'chopped_'
'choosing_'
'chon_'
'choked_'
'choirs_'
'choir_'
'chiễm_'
'chiếy_'
'chiêu_'
'chirps_'
'chirp_'
'china_'
'chin_'
'childish_'
'childcare_'
'chief_'
'chic_'
'chewed_'
'chert_'
'cherry_'
'cherish_'
'chemistries_'
'chemist_'
'chef_'
'cheetah_'
'cheese_'
'cheer_'
'cheekbone_'
'checks_'
'checklists_'
'cheats_'
'cheapest_'
'chauffeur_'
'chatty_'
'chassis_'
'charter_'
'charities_'
'charitable_'
'charisma_'
'charcoal_'
'characterized_'
'characteristically_'
'chapters_'
'channels_'
'channeled_'
'chanh_'
'championships_'
'champions_'
'chambers_'
'chamber_'
'chairman_'
'certified_'
'ceremonies_'
'cerebellum_'
'ceramics_'
'cephalopods_'
'centralized_'
'centimeter_'
'centigrade_'
'centerline_'
'centered_'
'census_'
'censorship_'
'censored_'
'cen_'
'cemeteries_'
'cement_'
'cellulose_'
'cellphone_'
'celebrating_'
'ceilings_'
'cedar_'
'ceasing_'
'caveat_'
'cavalier_'
'cautionary_'
'caution_'
'causal_'
'cau_'
'cathedral_'
'catchy_'
'catchphrase_'
'catching_'
'catches_'
'catcher_'
'catched_'
'catastrophes_'
'catapulted_'
'catalogs_'
'catacombs_'
'casual_'
'caste_'
'cassowary_'
'cassette_'
'cashier_'
'carved_'
'carve_'
'carts_'
'cartographic_'
'carrier_'
'carried_'
'caricature_'
'cares_'
'careers_'
'carcinogens_'
'carboxylic_'
'carbohydrate_'
'caramen_'
'capturing_'
'captures_'
'captive_'
'capsules_'
'capsule_'
'capitalist_'
'capacitor_'
'capacities_'
'capability_'
'canyon_'
'canxi_'
'canvas_'
'cantilevered_'
'canoe_'
'canned_'
'cannabis_'
'candles_'
'cancers_'
'canceled_'
'campuses_'
'campus_'
'camouflaged_'
'cameramen_'
'cameraman_'
'camel_'
'calves_'
'caloric_'
'calori_'
'calo_'
'calmer_'
'calibrated_'
'caliber_'
'calculus_'
'calculator_'
'cakewalks_'
'cakes_'
'cage_'
'cadence_'
'cadaverically_'
'cachet_'
'cache_'
'cacbonic_'
'cac_'
'cables_'
'cabins_'
'cabin_'
'cabaret_'
'c_'
'bừng_'
'bứt_'
'bủa_'
'bở_'
'bớ_'
'bồng_'
'bỏngi_'
'bịu_'
'bịt_'
'bịa_'
'bỉnh_'
'bện_'
'bềnh_'
'bết_'
'bẽo_'
'bẽ_'
'bẹp_'
'bắng_'
'bậy_'
'bậu_'
'bầm_'
'bấp_'
'bảnh_'
'bả_'
'bạ_'
'bướng_'
'bơ_'
'bùm_'
'bù_'
'bôi_'
'bòng_'
'bêu_'
'bét_'
'bát_'
'bái_'
'bành_'
'byproduct_'
'bypassing_'
'bye_'
'buốt_'
'buông_'
'buzzsaw_'
'buttons_'
'buttock_'
'butting_'
'butchery_'
'busted_'
'bust_'
'businessmen_'
'bushes_'
'bury_'
'bursting_'
'burnt_'
'burned_'
'buries_'
'buried_'
'burgers_'
'burger_'
'bureau_'
'burden_'
'buoyancy_'
'bunker_'
'bunk_'
'bungee_'
'bundle_'
'bumping_'
'bumblebees_'
'bullying_'
'bully_'
'bullshit_'
'bullseye_'
'bulls_'
'builds_'
'builders_'
'buildable_'
'bug_'
'buffet_'
'buffalo_'
'budgets_'
'buddy_'
'budding_'
'buck_'
'brutality_'
'brushes_'
'bruised_'
'browse_'
'brownie_'
'brotherhoods_'
'brodomain_'
'broadsheets_'
'brine_'
'brilliants_'
'brilliance_'
'brighter_'
'brief_'
'brides_'
'brick_'
'bribed_'
'brewed_'
'bred_'
'breaths_'
'breastfeed_'
'breakthroughs_'
'breakthrough_'
'breaker_'
'breakdown_'
'braver_'
'brave_'
'brass_'
'branches_'
'branch_'
'brake_'
'brainwave_'
'brainwashing_'
'brackets_'
'bracelets_'
'boyfriend_'
'boycotted_'
'boxy_'
'boxing_'
'boxer_'
'bows_'
'bowls_'
'bowling_'
'bounds_'
'boundless_'
'boundary_'
'bound_'
'bouncing_'
'bounces_'
'boulders_'
'bothered_'
'botanist_'
'borrowed_'
'boredom_'
'bored_'
'bore_'
'boots_'
'booths_'
'booth_'
'boon_'
'booms_'
'booming_'
'boomers_'
'boomed_'
'bookstores_'
'bookstore_'
'bookings_'
'booby_'
'bonuses_'
'bonus_'
'bonding_'
'bombs_'
'bombings_'
'bombarding_'
'bombard_'
'bolts_'
'boils_'
'boiling_'
'boilers_'
'boiled_'
'boggling_'
'boggles_'
'boggled_'
'bodged_'
'boards_'
'boa_'
'blur_'
'blueprints_'
'blueprint_'
'blows_'
'blowout_'
'blown_'
'blowflies_'
'blouse_'
'blots_'
'blooms_'
'bloody_'
'bloodshed_'
'bloodiest_'
'blocked_'
'blockaded_'
'blobs_'
'blinds_'
'blindness_'
'blindly_'
'blindingly_'
'bless_'
'blending_'
'blender_'
'blended_'
'blasts_'
'blast_'
'blank_'
'bladder_'
'blackout_'
'blacklisted_'
'biễu_'
'bittersweet_'
'bitterness_'
'bitter_'
'biting_'
'bitflows_'
'bite_'
'bitch_'
'bistro_'
'birthmark_'
'biriani_'
'bipedal_'
'bipartisan_'
'biosignature_'
'biopsy_'
'bioproducts_'
'biomutualisms_'
'biomedical_'
'biomaterials_'
'biomaterial_'
'bioluminescent_'
'bioluminescence_'
'biologics_'
'bioinformatics_'
'biohazard_'
'biographers_'
'biofabrication_'
'biodegradable_'
'biocontrol_'
'biocompatible_'
'biochemistry_'
'biochemical_'
'binoculars_'
'binned_'
'bingo_'
'bind_'
'billowing_'
'billionaire_'
'billboard_'
'bikini_'
'biker_'
'bifurcation_'
'bidialectal_'
'bicyclists_'
'bicep_'
'biblical_'
'biased_'
'bias_'
'beverages_'
'bespoke_'
'besiege_'
'besides_'
'bereavement_'
'benevolent_'
'benefiting_'
'benefited_'
'bends_'
'bend_'
'bench_'
'belts_'
'belt_'
'bells_'
'bell_'
'belittle_'
'behooves_'
'beholder_'
'behaviorally_'
'behaved_'
'beguiling_'
'begged_'
'befitting_'
'beekeeping_'
'beefalo_'
'beds_'
'bedrock_'
'bebôp_'
'beaver_'
'beatjazz_'
'beaten_'
'beatboxes_'
'beast_'
'bearings_'
'bearded_'
'bean_'
'beam_'
'beads_'
'beacon_'
'bazan_'
'bazaars_'
'battleships_'
'battleship_'
'battlefields_'
'batting_'
'battalions_'
'baton_'
'bathwater_'
'bathrooms_'
'bathroom_'
'bath_'
'bastards_'
'basket_'
'basin_'
'bash_'
'basement_'
'baseball_'
'barriers_'
'barrels_'
'barrel_'
'barrack_'
'baroque_'
'barometric_'
'bark_'
'baring_'
'barefoot_'
'barbs_'
'barber_'
'barbel_'
'barbed_'
'baobab_'
'banning_'
'bankers_'
'banker_'
'banjos_'
'bands_'
'bandage_'
'bam_'
'ballot_'
'balloons_'
'ballet_'
'ballads_'
'ballad_'
'balcony_'
'balconies_'
'bakery_'
'baker_'
'bake_'
'bagging_'
'baggage_'
'baffling_'
'bacterial_'
'backward_'
'backgrounds_'
'backer_'
'babysit_'
'babe_'
'axiomatically_'
'awiil_'
'awhile_'
'awfully_'
'awards_'
'awakened_'
'awaits_'
'avoidance_'
'avionics_'
'avid_'
'aviators_'
'avian_'
'averted_'
'averse_'
'avenging_'
'avatars_'
'avaricious_'
'autonomous_'
'automobiles_'
'automobile_'
'automaton_'
'automate_'
'autocratic_'
'authorization_'
'authored_'
'aurochs_'
'aunts_'
'aunt_'
'augmentation_'
'augment_'
'auditorium_'
'attuned_'
'attributed_'
'attracts_'
'attraction_'
'attracting_'
'attorney_'
'attired_'
'attenuation_'
'attending_'
'attendance_'
'attacking_'
'atrocious_'
'atomized_'
'atomize_'
'atlases_'
'athletes_'
'asynchronistic_'
'astrophysics_'
'astronomical_'
'astronauts_'
'astrology_'
'astonishment_'
'asthma_'
'asteroids_'
'assuring_'
'assure_'
'assumed_'
'association_'
'associating_'
'associates_'
'assistants_'
'assistant_'
'assessments_'
'assessing_'
'assembly_'
'assembling_'
'assembles_'
'assayed_'
'assassination_'
'assailing_'
'aspired_'
'aspirations_'
'aspirational_'
'aspiration_'
'aspirants_'
'asphaltenes_'
'asphalt_'
'askew_'
'ash_'
'ascension_'
'ascending_'
'artwork_'
'artistry_'
'artisans_'
'artificially_'
'artifice_'
'articulated_'
'articles_'
'arthritis_'
'artful_'
'arrowheads_'
'arresting_'
'arrangement_'
'arrange_'
'aroused_'
'arousal_'
'arose_'
'armada_'
'aristocracy_'
'arising_'
'arise_'
'argued_'
'arguably_'
'arctic_'
'archives_'
'archer_'
'archeologist_'
'arch_'
'arbitrary_'
'arable_'
'aqueducts_'
'aquarium_'
'aptamer_'
'apps_'
'approximation_'
'appropriately_'
'approaches_'
'approached_'
'appreciative_'
'appointments_'
'applying_'
'applicable_'
'applaud_'
'appearing_'
'appealing_'
'apparent_'
'appalling_'
'appalled_'
'apology_'
'apocalyptics_'
'apocalypse_'
'apnea_'
'aping_'
'aphorisms_'
'aphid_'
'aorta_'
'ao_'
'anyways_'
'anxious_'
'antivirus_'
'antique_'
'antimony_'
'antidote_'
'anticoagulation_'
'anticipated_'
'anthropology_'
'anthrophony_'
'anthrax_'
'antennas_'
'antennae_'
'antenna_'
'anonymous_'
'anomalies_'
'annoy_'
'announcing_'
'announces_'
'announcements_'
'announcement_'
'annihilation_'
'annex_'
'ankles_'
'animated_'
'animate_'
'angur_'
'angular_'
'angry_'
'angour_'
'angora_'
'anesthesia_'
'anecdote_'
'androids_'
'anchored_'
'analogous_'
'analog_'
'analgesics_'
'amusing_'
'amplification_'
'amphibious_'
'amphetamines_'
'amorphous_'
'ameliorate_'
'ambulances_'
'ambulance_'
'ambucycles_'
'ambiguous_'
'ambient_'
'ambassadors_'
'amazingly_'
'amateurs_'
'aluminized_'
'altimeter_'
'alters_'
'alternating_'
'alternate_'
'altering_'
'altars_'
'alphabets_'
'alpha_'
'aloud_'
'alongside_'
'alluded_'
'alls_'
'alloys_'
'allograft_'
'allocates_'
'allocated_'
'allies_'
'alikes_'
'alignment_'
'align_'
'aliens_'
'alienated_'
'alibi_'
'algebra_'
'alfalfa_'
'alf_'
'albeit_'
'alarm_'
'aisle_'
'airs_'
'airline_'
'ailments_'
'aids_'
'aides_'
'aided_'
'ahistorical_'
'agribusiness_'
'agrees_'
'agreement_'
'agony_'
'agitare_'
'aggressivity_'
'aggressive_'
'aggress_'
'aggregating_'
'agglutinate_'
'agglomerate_'
'aftershave_'
'afterschool_'
'aftermath_'
'aft_'
'afforded_'
'affection_'
'aesthetics_'
'aesthetic_'
'aerospace_'
'aerosols_'
'aeronautics_'
'aerodynamics_'
'advising_'
'advised_'
'advise_'
'adversity_'
'adverse_'
'adventures_'
'advantages_'
'advantageous_'
'advances_'
'adulation_'
'adorable_'
'adopted_'
'adolescents_'
'adolescence_'
'admittedly_'
'admitted_'
'admiringly_'
'admirer_'
'admire_'
'administrators_'
'administrator_'
'administration_'
'administering_'
'administered_'
'adjusts_'
'adjustments_'
'adjust_'
'adjacency_'
'adequate_'
'additional_'
'adding_'
'addictive_'
'addict_'
'adaptively_'
'adapting_'
'adaptations_'
'ad_'
'acute_'
'actuators_'
'activist_'
'actively_'
'activates_'
'actioning_'
'acrobatics_'
'acres_'
'acquired_'
'acquaintances_'
'acoustics_'
'acousticians_'
'acoustically_'
'acorn_'
'acknowledging_'
'acidity_'
'achievable_'
'aches_'
'accuracy_'
'accumulating_'
'accumulated_'
'accumulate_'
'accrue_'
'accounting_'
'accounted_'
'accountability_'
'accomplishment_'
'accomplish_'
'accompanying_'
'accommodations_'
'accommodation_'
'accommodate_'
'acclaimed_'
'accidents_'
'accessibility_'
'accessed_'
'accelerometers_'
'accelerated_'
'academics_'
'academia_'
'abysses_'
'abusive_'
'abusing_'
'absurd_'
'abstraction_'
'abstracting_'
'abstracted_'
'abstain_'
'absorbs_'
'absorbed_'
'absence_'
'absconded_'
'aborted_'
'abnormal_'
'abled_'
'abilities_'
'abide_'
'abandon_'
'Zullinger_'
'Zuckerberg_'
'Zopa_'
'Zoo_'
'Zipcar_'
'Zip_'
'Zimbardo_'
'Zimbabwean_'
'Zim_'
'Zhou_'
'Zen_'
'Zeisel_'
'Zed_'
'Zara_'
'Zappos_'
'Zambia_'
'Zakouma_'
'Zaire_'
'Zaha_'
'Zacharias_'
'Zacaton_'
'ZZ143_'
'Yên_'
'Yunus_'
'YourMorals_'
'Yosemite_'
'Yorick_'
'Yogi_'
'Yochai_'
'Yo_'
'Yesterday_'
'Yep_'
'Yentl_'
'Yemenis_'
'Years_'
'Year_'
'Yao_'
'Yann_'
'YVES_'
'YB_'
'Xếp_'
'Xấu_'
'Xấp_'
'Xảo_'
'Xương_'
'Xăng_'
'Xúc_'
'Xì_'
'Xét_'
'Xã_'
'Xác_'
'Xà_'
'Xuống_'
'Xuất_'
'Xu_'
'Xoắn_'
'Xoá_'
'XIn_'
'XIX_'
'Wyoming_'
'Wurman_'
'Wuhahaha_'
'Writers_'
'Writer_'
'Wozniak_'
'Work_'
'Word_'
'Worcester_'
'Wooden_'
'Woo_'
'Wonka_'
'Wonho_'
'Wonderfully_'
'Won_'
'Wolsey_'
'Woloshin_'
'Wolff_'
'Wolfe_'
'Wolf_'
'Wizard_'
'Wittgenstein_'
'Witter_'
'Witherspoon_'
'Wireless_'
'Wired_'
'Wire_'
'Winter_'
'Winston_'
'Winehouse_'
'Willy_'
'Willis_'
'Willie_'
'Williamson_'
'Williams_'
'Wilkins_'
'Wildlife_'
'Wilderness_'
'Wilder_'
'Wilde_'
'Wikis_'
'WikiHouse_'
'Wii_'
'Wigler_'
'Wide_'
'Widder_'
'Wi_'
'WiFi_'
'Whoop_'
'Whitesides_'
'Whitehall_'
'Whewell_'
'Wherever_'
'Whenever_'
'Wharton_'
'Westminster_'
'Wessling_'
'Wernickle_'
'Wernicke_'
'Werner_'
'Weller_'
'Weird_'
'Weinberg_'
'Webmasters_'
'Webb_'
'Wealth_'
'Wayne_'
'Way_'
'Watts_'
'Watt_'
'Wanting_'
'Want_'
'Walkowicz_'
'Walker_'
'Walk_'
'Wald_'
'Wal_'
'Waiting_'
'Wagner_'
'Wageningen_'
'Wafi_'
'Wael_'
'WTO_'
'WELL_'
'WAIS_'
'Vực_'
'Vỡ_'
'Vỗ_'
'Vị_'
'Vệt_'
'Vẻ_'
'Vần_'
'Vạn_'
'Vũ_'
'Võ_'
'Vòng_'
'Vân_'
'Vutter_'
'Vote_'
'Von_'
'Volta_'
'Volcanoes_'
'Viễn_'
'Vitamin_'
'Visual_'
'Vision_'
'Vishnu_'
'Vipassana_'
'Violence_'
'Vinci_'
'Villeneuve_'
'Vikings_'
'Vienna_'
'Vieira_'
'Video_'
'Victorian_'
'Vicodin_'
'Vibro_'
'Viagras_'
'Verna_'
'Vermeer_'
'Venter_'
'Venera_'
'Velcro_'
'Various_'
'Vander_'
'Values_'
'Valentine_'
'Val_'
'Vaitarni_'
'VS_'
'VRAM_'
'VIctorian_'
'VI_'
'Uttar_'
'Using_'
'Ushahidi_'
'Uri_'
'Urhobo_'
'Urfa_'
'Uranium_'
'Ur_'
'Upstate_'
'Upper_'
'Uniview_'
'Unites_'
'Uniroo_'
'Unilever_'
'Unified_'
'Understand_'
'Undergound_'
'Underdrawn_'
'Unclear_'
'Uncle_'
'Unbeknownst_'
'Um_'
'Ultrasound_'
'Ultimately_'
'Uhm_'
'Ughhhh_'
'Ueli_'
'US_'
'USFDA_'
'USC_'
'USAID_'
'UNITAID_'
'UNICEF_'
'UNAMA_'
'UNAIDS_'
'UI_'
'UIUC_'
'UAE_'
'Tờ_'
'Tồn_'
'Tốn_'
'Tị_'
'Tệ_'
'Tạp_'
'Tường_'
'Tư_'
'Tù_'
'Tán_'
'Tám_'
'Tái_'
'Tàu_'
'TÔi_'
'Tyson_'
'Tyndall_'
'Tyler_'
'Txtng_'
'Twittered_'
'Twenty_'
'Tweeting_'
'Tweed_'
'Tutankhamun_'
'Tuscan_'
'Turrell_'
'Turkmenistan_'
'Turkish_'
'Turk_'
'Turing_'
'Turf_'
'Turek_'
'Tupperware_'
'Tuolumne_'
'Tunisians_'
'Tunisia_'
'Tum_'
'Tulley_'
'Tuff_'
'Tuesday_'
'Tudor_'
'Tucson_'
'Tso_'
'Tsiaras_'
'Trừ_'
'Trứng_'
'Trần_'
'Trầm_'
'Trại_'
'Trưởng_'
'Trương_'
'Trúc_'
'Trò_'
'Trình_'
'Tránh_'
'Trào_'
'Trying_'
'Truyện_'
'Truths_'
'Trusting_'
'Trust_'
'Trum_'
'Truck_'
'Trophic_'
'Trio_'
'Trinity_'
'Trice_'
'Tribe_'
'Treo_'
'Trek_'
'Treatment_'
'Treak_'
'Transportation_'
'Translate_'
'Transition_'
'Transformers_'
'Transactions_'
'Trains_'
'Training_'
'Traffic_'
'Trading_'
'Toán_'
'Toyota_'
'Townsend_'
'Town_'
'Touch_'
'Tots_'
'Total_'
'Tongue_'
'Tompkins_'
'Tomorrow_'
'Tomasdottir_'
'Together_'
'Tod_'
'Tiện_'
'Tiền_'
'Tiên_'
'Titus_'
'Titanji_'
'Tissue_'
'Tipping_'
'Tilly_'
'Till_'
'Tilamook_'
'Tikal_'
'Tierra_'
'Tie_'
'Tide_'
'Tibetan_'
'Thừa_'
'Thợ_'
'Thỉnh_'
'Thằng_'
'Thập_'
'Thấy_'
'Thấu_'
'Thất_'
'Thảm_'
'Thải_'
'Thạch_'
'Thưa_'
'Thâm_'
'Thám_'
'Thách_'
'Thác_'
'Thuộc_'
'Thuật_'
'Thuân_'
'Thuyền_'
'Thus_'
'Thung_'
'Thumbs_'
'Thucydides_'
'Through_'
'Threats_'
'Threat_'
'Thread_'
'Thoả_'
'Thoại_'
'Thought_'
'Though_'
'Thornton_'
'Thiệt_'
'Thiền_'
'Thiếu_'
'Theseus_'
'Thermal_'
'Themes_'
'Theirs_'
'Theft_'
'Thankfully_'
'Thang_'
'Thandie_'
'Thames_'
'Thailand_'
'Thad_'
'Text_'
'Teruo_'
'Terry_'
'Terrorism_'
'Terrifying_'
'Teresa_'
'Teodorin_'
'Tenrence_'
'Tennessee_'
'Temple_'
'Telescope_'
'Telemetry_'
'Telco_'
'Technology_'
'Technologies_'
'Teacher_'
'Tbilisi_'
'Tati_'
'Tater_'
'Tate_'
'Tasmania_'
'Tarawa_'
'Tapscott_'
'Tandon_'
'Tanagra_'
'Tamara_'
'Talwar_'
'Talmud_'
'Tall_'
'Talks_'
'Tali_'
'Talent_'
'Takaungu_'
'Tahiti_'
'Table_'
'Tabernale_'
'Tab_'
'TNT_'
'TNC_'
'TM_'
'THẤY_'
'TERI_'
'TEEB_'
'TEDxUSC_'
'TEDxSummit_'
'TEDxRotterdam_'
'TEDxNYED_'
'TEDster_'
'TEDley_'
'TEDistan_'
'TEDYouth_'
'TEDXParis_'
'TEDSalon_'
'TEDPrize_'
'TEDIndia_'
'TEDActive_'
'TED2012_'
'TED2011_'
'TED2008_'
'TEC_'
'TD_'
'TATA_'
'Sữa_'
'Sở_'
'Sống_'
'Sếp_'
'Sương_'
'Sư_'
'Sông_'
'Sôcôla_'
'Sóng_'
'Sâm_'
'Sát_'
'System_'
'Syrians_'
'Syriana_'
'Sydney_'
'Swimming_'
'Sweeney_'
'Swank_'
'Swami_'
'Swahili_'
'Svalbard_'
'Suzuki_'
'Sussman_'
'Suslick_'
'Susan_'
'Survey_'
'Surveillance_'
'Surfaces_'
'Surenas_'
'Sure_'
'Sur_'
'Supreme_'
'Support_'
'Superman_'
'SuperBetter_'
'Summertime_'
'Sumatra_'
'Suheir_'
'Sugata_'
'Sue_'
'Støre_'
'Styrofoam_'
'Stuxnet_'
'Stunning_'
'Studios_'
'Student_'
'Stuckey_'
'Strunk_'
'Stroop_'
'Strip_'
'Strindberg_'
'Streets_'
'Stream_'
'Strait_'
'Stop_'
'Stock_'
'Stieglitz_'
'Steward_'
'Stern_'
'Steps_'
'Stephano_'
'Stephan_'
'Step_'
'Steindl_'
'Steffen_'
'Stefana_'
'Steelcase_'
'Statue_'
'Station_'
'Starting_'
'Start_'
'Stars_'
'Starry_'
'Starr_'
'Starner_'
'Standing_'
'Standards_'
'Stand_'
'Stacy_'
'Stability_'
'Sri_'
'Srdja_'
'Squirrels_'
'Springsteen_'
'Springs_'
'Springfield_'
'Sports_'
'Spoke_'
'Spock_'
'Spleen_'
'Splasy_'
'Splaghy_'
'Spinoza_'
'Spiller_'
'Spielberg_'
'Spiegel_'
'Spidey_'
'Spider_'
'Sperm_'
'Speedo_'
'Speech_'
'Sparta_'
'Spaak_'
'Sox_'
'Southampton_'
'Southam_'
'Sounds_'
'Sound_'
'Sorrow_'
'Soros_'
'Soren_'
'Sophocles_'
'Sony_'
'Sonam_'
'Somehow_'
'Somebody_'
'Somaly_'
'Somalia_'
'Somali_'
'Solzhenitsyn_'
'Solomon_'
'Solitude_'
'Sogolon_'
'Sobule_'
'Snyder_'
'Snowdeal_'
'Snow_'
'Smothers_'
'Smolin_'
'Smoked_'
'Smits_'
'Smithfield_'
'Smarter_'
'Slutkin_'
'Slim_'
'Slate_'
'Slap_'
'Skylar_'
'Skydrive_'
'Skerry_'
'Siêu_'
'Siyathemba_'
'Sitra_'
'Sitopia_'
'Sisyphic_'
'Sisterma_'
'Sirens_'
'Sino_'
'Single_'
'Sing_'
'Sinek_'
'Sinclair_'
'Simulcast_'
'Simona_'
'Silk_'
'Silent_'
'Silence_'
'Signed_'
'Sigmund_'
'Sight_'
'Sica_'
'Shylock_'
'Shutter_'
'Shreddies_'
'Shorthand_'
'Short_'
'Shook_'
'Shock_'
'Shoah_'
'Shiva_'
'Shiro_'
'Shirky_'
'Shirin_'
'Shimon_'
'Shiites_'
'Shia_'
'Shi_'
'Sherrington_'
'Sherman_'
'Sheriff_'
'Shereen_'
'Shelf_'
'Sheikha_'
'Shawn_'
'Sharot_'
'Sharon_'
'Sharing_'
'Shane_'
'Shand_'
'Shalom_'
'Shall_'
'Shadow_'
'Seyi_'
'Sevitha_'
'Severin_'
'Seventh_'
'Sesquicentennial_'
'Sesame_'
'Service_'
'Server_'
'Serra_'
'Seriously_'
'Sergio_'
'Sergey_'
'Sergei_'
'Serbia_'
'Sequoia_'
'Sentinel_'
'Sense_'
'Senior_'
'Seng_'
'Senegal_'
'Seneca_'
'Senate_'
'Semco_'
'Self_'
'Seeing_'
'Seed_'
'Sedaris_'
'Security_'
'Secret_'
'Seconds_'
'Sears_'
'Seamounts_'
'Seaman_'
'Seagram_'
'Sea_'
'Scud_'
'Scruggs_'
'Scripts_'
'Scripps_'
'Scottish_'
'Scotch_'
'Scientology_'
'Scientists_'
'Sciences_'
'Science_'
'Schwartz_'
'Schramm_'
'Schottsboro_'
'Schools_'
'Schneider_'
'Schmo_'
'Schindler_'
'Schelling_'
'Schafer_'
'Schaefer_'
'Scaremongers_'
'Scandinavian_'
'Scan_'
'Scala_'
'Say_'
'Saw_'
'Saunders_'
'Saturnian_'
'Saturday_'
'Satchidananda_'
'Saskatchewan_'
'Sashimi_'
'Sarnia_'
'Sarkozy_'
'Sarjero_'
'Sardinia_'
'Sarawak_'
'Saramago_'
'Sarah_'
'Sangin_'
'Sandy_'
'Sandra_'
'Samsung_'
'Samia_'
'Sameer_'
'Samara_'
'Samantha_'
'Salam_'
'Salaam_'
'Saint_'
'Said_'
'Sagmeister_'
'Sage_'
'Safti_'
'Safdie_'
'Sadoway_'
'Saddam_'
'Sacramento_'
'Sacks_'
'STriDER_'
'STEM_'
'SSRIs_'
'SSC_'
'SJ_'
'SING_'
'SG_'
'SEF_'
'SEALS_'
'SCN_'
'SB_'
'S7_'
'Rủi_'
'Rời_'
'Răn_'
'Rùa_'
'Rác_'
'Rào_'
'Russel_'
'Rush_'
'Rusesabagina_'
'Rupert_'
'Running_'
'Runner_'
'Rung_'
'Rugged_'
'Ruby_'
'Rube_'
'Rover_'
'Routemasters_'
'Routemaster_'
'Roundabout_'
'Round_'
'Rotterdam_'
'Rossy_'
'Rosenkavalier_'
'Rosalind_'
'Rory_'
'Ronson_'
'Ron_'
'Romney_'
'Romantic_'
'Rolling_'
'Rohwedder_'
'Rogger_'
'Rodney_'
'Rockwell_'
'Rochester_'
'Robyn_'
'Robotic_'
'Robinson_'
'Robin_'
'Robicsek_'
'Robertson_'
'Robbins_'
'Robbie_'
'Roanoke_'
'RoMeLa_'
'Riverdale_'
'Risks_'
'Rinse_'
'Ring_'
'Rigoberta_'
'Ridgeway_'
'Rider_'
'Ride_'
'Ricky_'
'Richart_'
'Richards_'
'Rich_'
'Rice_'
'Ricard_'
'Rica_'
'Ribadu_'
'Rhythm_'
'Rey_'
'Rewards_'
'Reverend_'
'Rev_'
'Reuther_'
'Reuters_'
'Return_'
'Restless_'
'Resource_'
'Resolutions_'
'Resnick_'
'Republic_'
'Report_'
'Renzo_'
'Rensink_'
'Reno_'
'Remove_'
'Rembrandt_'
'Remarkably_'
'Rem_'
'Religions_'
'Reiniger_'
'Reich_'
'Regret_'
'Reginald_'
'Reggio_'
'Reformation_'
'Reform_'
'Reese_'
'Redwood_'
'Redlands_'
'Redistribution_'
'Redditors_'
'Reddit_'
'Reda_'
'Recording_'
'Reconciliation_'
'Rebel_'
'Rebecca_'
'Reading_'
'Reader_'
'Read_'
'RePOOPulate_'
'Raven_'
'Rats_'
'Rather_'
'Ratan_'
'Rast_'
'Rapidograph_'
'Rape_'
'Rankings_'
'Rani_'
'Ranh_'
'Rang_'
'Randers_'
'Randall_'
'Ran_'
'Ramsey_'
'Ramon_'
'Ramblas_'
'Ramachandran_'
'Rakow_'
'Raibert_'
'Raghupati_'
'Raghava_'
'Radiology_'
'Radical_'
'Rad_'
'Rabbie_'
'RSS_'
'RQ_'
'ROSSY_'
'RISD_'
'RF_'
'RCA_'
'Quí_'
'Quên_'
'Quãng_'
'Quái_'
'Quác_'
'Quyết_'
'Quyến_'
'Quoting_'
'Quixotic_'
'Quick_'
'Quentin_'
'Quayle_'
'Qatari_'
'Qalandars_'
'Python_'
'Pythago_'
'Pyrex_'
'Pyle_'
'Puritan_'
'Puranam_'
'Purana_'
'Puppets_'
'Puppet_'
'Pune_'
'Pulsar_'
'Pugh_'
'Puget_'
'Puberty_'
'Psoriasis_'
'Pryor_'
'Providencia_'
'Providence_'
'Proust_'
'Proton_'
'Protecting_'
'Prospero_'
'Property_'
'Propaganda_'
'Promised_'
'Progressive_'
'Product_'
'Proctor_'
'Print_'
'Prinima_'
'Priestley_'
'Prickly_'
'Preventing_'
'PrettyFlyForAWifi_'
'Pretoria_'
'Pretor_'
'Presley_'
'Praxeology_'
'Practice_'
'Powered_'
'Power_'
'Powell_'
'Poverty_'
'Poupon_'
'Postgraduate_'
'Positively_'
'Porter_'
'Port_'
'Porridge_'
'Porgy_'
'Porfirio_'
'Popular_'
'Pops_'
'Popper_'
'Popovic_'
'Poop_'
'Ponzi_'
'Ponies_'
'Polynesian_'
'Polymer_'
'Pollution_'
'Police_'
'Polaroid_'
'Pol_'
'Poilane_'
'Poignancy_'
'Pocock_'
'Ply_'
'Pluto_'
'Plus_'
'Plexiglass_'
'Plexiglas_'
'Plenty_'
'Pleisticine_'
'Playstation_'
'Player_'
'Playboy_'
'Play_'
'Platon_'
'Platform_'
'Plastic_'
'Plant_'
'Plan_'
'Placebo_'
'Place_'
'Pisar_'
'Pisa_'
'Pins_'
'Pinney_'
'Pink_'
'Pinheads_'
'Pinatubo_'
'Pin_'
'Pierson_'
'Pictures_'
'Picture_'
'Pickens_'
'Piazzolla_'
'Piano_'
'Phạm_'
'Phúc_'
'Phú_'
'Phóng_'
'Phía_'
'Phí_'
'Phán_'
'Phreatic_'
'Photoshop_'
'Photographing_'
'Phone_'
'Pho_'
'Phiêu_'
'Phiên_'
'Philosophical_'
'Phillippines_'
'Phillip_'
'Philipse_'
'Philips_'
'Philharmonic_'
'Ph_'
'PhDs_'
'PhD_'
'Pew_'
'Petrauskas_'
'Petra_'
'Pet_'
'Pesa_'
'Peruvians_'
'Persistence_'
'Persist_'
'Perry_'
'Pernod_'
'Periodically_'
'Performer_'
'Percocet_'
'Percipiere_'
'Perception_'
'Per_'
'Pepsi_'
'Pepperdine_'
'Penzias_'
'Pentiums_'
'Pentium_'
'Pennsylvania_'
'Penitentiary_'
'Peninsula_'
'Peloponnesian_'
'Pelli_'
'Peje_'
'Pederson_'
'Pear_'
'Peaceful_'
'Paz_'
'Payne_'
'Paulette_'
'Pattie_'
'Patriots_'
'Patrick_'
'Patricia_'
'Patkars_'
'Path_'
'Patent_'
'Past_'
'Passage_'
'Pass_'
'Pask_'
'Pashtuns_'
'Pashto_'
'Partnership_'
'Partners_'
'Parting_'
'Participants_'
'Part_'
'Parker_'
'Parikrma_'
'Parents_'
'Parent_'
'Pare_'
'Paraquat_'
'Paraorchestra_'
'Paraguay_'
'Paper_'
'Paparazzi_'
'Papandreou_'
'Panama_'
'Pamela_'
'Pam_'
'Palu_'
'Palti_'
'Palmer_'
'Palme_'
'Palm_'
'Palestin_'
'Paleoecology_'
'Paldin_'
'Palace_'
'Pakistani_'
'Pahlavi_'
'Pads_'
'PackBot_'
'Pachycephalosaurus_'
'Pablo_'
'PVC_'
'PT_'
'PTSD_'
'PSA_'
'PROTECTIP_'
'PP_'
'PMTCT_'
'PLC_'
'PLATO_'
'PET_'
'PETS_'
'PDA_'
'Oyesola_'
'Oxytocin_'
'Oxfam_'
'Owners_'
'Overdrawn_'
'Otherwise_'
'Oslo_'
'Ortega_'
'Ornish_'
'Orleans_'
'Origins_'
'Organs_'
'Organizing_'
'Orfali_'
'Ordinary_'
'Ordinarily_'
'Orchestra_'
'Orbital_'
'Orb_'
'Optimism_'
'Optical_'
'Opportunity_'
'Opi_'
'Operation_'
'Opera_'
'Open_'
'Onyx_'
'Ontario_'
'Ong_'
'Oman_'
'Olson_'
'Olof_'
'Older_'
'Old_'
'Okonjo_'
'Okoloma_'
'Okollloh_'
'Okie_'
'Okavango_'
'Oil_'
'Ohanian_'
'Often_'
'Office_'
'Off_'
'Oedipus_'
'Odyssey_'
'Odonil_'
'Octopus_'
'October_'
'Octavio_'
'Occupy_'
'Obura_'
'Oblivion_'
'Objective_'
'Obiang_'
'Obasanjo_'
'OSX_'
'OED_'
'O600KO78RUS_'
'Nội_'
'Nồng_'
'Nối_'
'Nạn_'
'Nút_'
'Núi_'
'Nông_'
'Nóng_'
'Nêu_'
'Nành_'
'Nye_'
'Nyad_'
'Nuốt_'
'Nutmeg_'
'Nuhu_'
'Nt_'
'Nsibidi_'
'Nothing_'
'Noth_'
'Nosek_'
'Northwest_'
'Northeast_'
'Norse_'
'Nope_'
'Nonsense_'
'Nonetheless_'
'Nolan_'
'Noel_'
'Nixon_'
'Nirvana_'
'Nirmalya_'
'Ninja_'
'Nineteen_'
'Nine_'
'Niles_'
'Nike_'
'Nigel_'
'Nietzsche_'
'Nicklen_'
'Nhửng_'
'Nhớ_'
'Nhện_'
'Nhắn_'
'Nhấp_'
'Nhảy_'
'Nhường_'
'Nhũng_'
'Nhât_'
'Nhu_'
'Nhiệm_'
'Nhiếp_'
'Nhanh_'
'Ngững_'
'Ngụ_'
'Ngồi_'
'Ngọt_'
'Ngắn_'
'Ngại_'
'Ngưu_'
'Ngăn_'
'Nguồc_'
'Ngozi_'
'Ngoan_'
'Ngiên_'
'Nghị_'
'Nghỉ_'
'Nghèo_'
'Nghiệm_'
'Nghiêm_'
'Newsweek_'
'Newman_'
'Newcastle_'
'Newborn_'
'NeverSeconds_'
'Net_'
'Neshat_'
'Nerve_'
'Neo_'
'Nei_'
'Nehia_'
'Negotiable_'
'Needles_'
'Needing_'
'Nearly_'
'Near_'
'Neanderthal_'
'Nazi_'
'Naxalite_'
'Navy_'
'Naval_'
'Nauy_'
'Naturally_'
'Nato_'
'Natalie_'
'Nassau_'
'Napster_'
'Nanotyrannus_'
'Nan_'
'Namely_'
'Namaste_'
'Najmuddin_'
'Najjar_'
'Nairobi_'
'Nagasaki_'
'Nadkarni_'
'Nadkami_'
'Nader_'
'Nad_'
'NY_'
'NYU_'
'NYPD_'
'NT_'
'NM_'
'NC_'
'NASCAR_'
'Mở_'
'Mội_'
'Mật_'
'Mần_'
'Mấu_'
'Mảnh_'
'Mượn_'
'Mùi_'
'Möbius_'
'Môt_'
'Mông_'
'Môn_'
'Môi_'
'Móc_'
'Mê_'
'Màng_'
'Myra_'
'Myesha_'
'Mycorrhiza_'
'Muỗi_'
'Muốn_'
'Mutopo_'
'Mute_'
'Mustafa_'
'Must_'
'Mussa_'
'Murder_'
'Munger_'
'Mullins_'
'Muller_'
'Mullah_'
'Mukwege_'
'Mujahideen_'
'Much_'
'Mubarak_'
'Mt_'
'Ms_'
'Mrs_'
'Mozambique_'
'Mowgli_'
'Move_'
'Moutain_'
'Moussaoui_'
'Mountain_'
'Motor_'
'Moshe_'
'Moses_'
'Mortality_'
'Morse_'
'Morocco_'
'Morning_'
'Morin_'
'Monty_'
'Montreal_'
'Month_'
'Montenegro_'
'Montagu_'
'Monrovia_'
'Monroe_'
'Monopoly_'
'Monica_'
'Monetary_'
'Monet_'
'Mommy_'
'Moments_'
'Mojave_'
'Moeliker_'
'Moderator_'
'Mobility_'
'Miếng_'
'Mizzone_'
'Mitt_'
'Mitra_'
'Mitch_'
'Misuse_'
'Missoula_'
'Missisipi_'
'Miss_'
'Misha_'
'Mischel_'
'Miru_'
'Miranda_'
'Minute_'
'Minus_'
'Minsky_'
'Minotaur_'
'Minority_'
'Ministry_'
'Mines_'
'Minerals_'
'Mineral_'
'Miner_'
'Milton_'
'Mills_'
'Milliken_'
'Millennium_'
'Milk_'
'Milgram_'
'Mikveh_'
'Mikko_'
'Mikey_'
'Midway_'
'Mid_'
'Microsoft_'
'Micros_'
'Mick_'
'Michelangelo_'
'Meyerhoff_'
'Metropolis_'
'Metrics_'
'Methodist_'
'Methane_'
'Metaphorically_'
'Messoud_'
'Merz_'
'Merrifield_'
'Merckx_'
'Mentors_'
'Mental_'
'Menominee_'
'Menlo_'
'Menino_'
'Meninas_'
'Mendocino_'
'Menchu_'
'Memorial_'
'Memoirs_'
'Members_'
'Mellon_'
'Mello_'
'Meer_'
'Medvedev_'
'Meditate_'
'Medicines_'
'Media_'
'Medha_'
'Medes_'
'Mechanical_'
'Mecca_'
'Meat_'
'Mealey_'
'Meadows_'
'Meadow_'
'McGuire_'
'McGregor_'
'McGonigal_'
'McDonald_'
'McCurry_'
'McCullough_'
'McCormack_'
'McCartney_'
'Mayor_'
'Maya_'
'Maxwell_'
'Max_'
'Mauri_'
'Mau_'
'Matxcova_'
'Matternet_'
'Matrices_'
'Mathematics_'
'Math_'
'Material_'
'Matchstick_'
'Match_'
'Mat_'
'Mastery_'
'Masters_'
'Massey_'
'Massachuset_'
'Marvin_'
'Martian_'
'Mart_'
'Marrow_'
'Marquis_'
'Marissa_'
'Marionette_'
'Mariner_'
'Marina_'
'Marin_'
'Maricela_'
'Maria_'
'Marfan_'
'Marcin_'
'Marcel_'
'Marc_'
'Marble_'
'Marathon_'
'Mapping_'
'Mapendo_'
'Mantegna_'
'Manson_'
'Manju_'
'Manias_'
'Mania_'
'Mandeb_'
'Mandarin_'
'Manchester_'
'Manche_'
'Managua_'
'Mam_'
'Mallifert_'
'Mali_'
'Males_'
'Malawi_'
'Malaria_'
'Making_'
'Make_'
'Mairead_'
'Maira_'
'Main_'
'Maimonides_'
'Mai_'
'Mahmoud_'
'Mahler_'
'Mahjong_'
'Mahalik_'
'Mahabuba_'
'Magyar_'
'Magicians_'
'Maghreb_'
'Magazine_'
'Magalani_'
'Maes_'
'Madurai_'
'Madeline_'
'Madeleine_'
'Maddie_'
'Madagascar_'
'Macy_'
'MacroBot_'
'Mackenzie_'
'Machover_'
'Machine_'
'Machado_'
'MacMaster_'
'MacGyver_'
'MacGregor_'
'Maasai_'
'MV_'
'MPAs_'
'MOUs_'
'MI6_'
'MENA_'
'Lựa_'
'Lục_'
'Lụa_'
'Lợi_'
'Lổ_'
'Lồng_'
'Lọc_'
'Lệch_'
'Lệ_'
'Lặn_'
'Lặc_'
'Lẳng_'
'Lắng_'
'LẮNG_'
'Lấy_'
'Lạnh_'
'Lượng_'
'Lưới_'
'Lùi_'
'Lâu_'
'Lá_'
'Lyne_'
'Lynchburg_'
'Ly_'
'Luyến_'
'Lusitania_'
'Luria_'
'Lupashin_'
'Lunch_'
'Lumiere_'
'Lula_'
'Luke_'
'Ludwig_'
'Luckily_'
'Luck_'
'Lucianne_'
'Luce_'
'Loạt_'
'Loyola_'
'Loves_'
'Lovell_'
'Lounge_'
'Louise_'
'Louisburg_'
'Louis_'
'Lou_'
'Lotus_'
'Lotto_'
'Lotte_'
'Lost_'
'Looks_'
'Lomonosov_'
'Lomborg_'
'Lollapalooza_'
'Lolita_'
'Lois_'
'Logan_'
'Local_'
'Lobo_'
'Liều_'
'Lizzie_'
'Liverpool_'
'Livermore_'
'Lithuana_'
'Listening_'
'Lip_'
'Lionel_'
'LinkedIn_'
'Linh_'
'Line_'
'Limpopo_'
'Limburger_'
'Limbaugh_'
'Lijiang_'
'Light_'
'Ligaments_'
'Liespotters_'
'Libăng_'
'Library_'
'Libeskind_'
'Liberals_'
'Liberalism_'
'Liber_'
'Lian_'
'Leyla_'
'Levant_'
'Leukemia_'
'Lets_'
'Less_'
'Leslie_'
'Lesley_'
'Leroy_'
'Lennox_'
'Lena_'
'Lemonade_'
'Leilei_'
'Leigh_'
'Leibniz_'
'Lehman_'
'Lebanese_'
'Leather_'
'Learning_'
'League_'
'Leadbeater_'
'Lazarus_'
'Lawyers_'
'Lava_'
'Lauder_'
'Latvia_'
'Latma_'
'Lasley_'
'Lascaux_'
'Larsson_'
'Larson_'
'Largely_'
'Large_'
'Lanza_'
'Lansing_'
'Lansdowne_'
'Lanka_'
'Languirand_'
'Languages_'
'Land_'
'Lampoon_'
'Lakshmi_'
'Lakes_'
'Lahore_'
'Lagos_'
'Ladenism_'
'Laboratories_'
'Lab_'
'LaFrance_'
'LSE_'
'LMAO_'
'LHC_'
'LEMUR_'
'LB_'
'LA_'
'Kịch_'
'Kẹo_'
'Kĩ_'
'Kórẽ_'
'Kórē_'
'Kíngléy_'
'Kéré_'
'Kwabena_'
'Kuznets_'
'Kurzweil_'
'Kurosaki_'
'Kure_'
'Kurdistan_'
'Kumbaya_'
'Kumar_'
'Kuchera_'
'Kristian_'
'Kristen_'
'Krista_'
'Krispy_'
'Krishnan_'
'Krishna_'
'Krill_'
'Kresge_'
'Kremlin_'
'Kreme_'
'Krause_'
'Kraus_'
'Krane_'
'Kraft_'
'Koyczan_'
'Kowan_'
'Koshi_'
'Koreans_'
'Korea_'
'Koolhaas_'
'Kool_'
'Konichiwa_'
'Koko_'
'Koh_'
'Kodak_'
'Koblin_'
'Kobe_'
'Knowledge_'
'Know_'
'Knife_'
'Kline_'
'Klin_'
'Kiên_'
'Kiva_'
'Kitchen_'
'Kismet_'
'Kirsten_'
'KiranBedi_'
'Kinshasa_'
'Kings_'
'Kingdom_'
'Kind_'
'Kimbo_'
'Kills_'
'Killingsworth_'
'Kiddo_'
'Kidd_'
'Kid_'
'Kickstarter_'
'Kibbutz_'
'Khứu_'
'Khởi_'
'Khôi_'
'Khí_'
'Khái_'
'Khách_'
'Khác_'
'Khuấy_'
'Khuyến_'
'Khung_'
'Khoảnh_'
'Kho_'
'Khmer_'
'Khiết_'
'Khepri_'
'Khalil_'
'Khaled_'
'Khader_'
'Keys_'
'Keynote_'
'Keynes_'
'Kevlar_'
'Kessler_'
'Kerala_'
'Kepler_'
'Kenyan_'
'Kentucky_'
'Kentridge_'
'Kent_'
'Kennedy_'
'Kendall_'
'Kelley_'
'Keller_'
'Kees_'
'Keck_'
'Kazakhstan_'
'Kayonza_'
'Kay_'
'Kavita_'
'Kas_'
'Kartikeya_'
'Karolinska_'
'Karen_'
'Kapavati_'
'Kaoss_'
'Kanchi_'
'Kamp_'
'Kamkwamba_'
'Kamen_'
'Kaluza_'
'Kalman_'
'Kaladar_'
'Kai_'
'Kafkian_'
'Kabisen_'
'KK_'
'KHông_'
'KG_'
'KFC_'
'K2_'
[...]
